unsigned char glucose_tflite[] = {
  0x20, 0x00, 0x00, 0x00, 0x54, 0x46, 0x4c, 0x33, 0x00, 0x00, 0x00, 0x00,
  0x14, 0x00, 0x20, 0x00, 0x1c, 0x00, 0x18, 0x00, 0x14, 0x00, 0x10, 0x00,
  0x0c, 0x00, 0x00, 0x00, 0x08, 0x00, 0x04, 0x00, 0x14, 0x00, 0x00, 0x00,
  0x1c, 0x00, 0x00, 0x00, 0x8c, 0x00, 0x00, 0x00, 0x0c, 0x01, 0x00, 0x00,
  0x28, 0x1c, 0x00, 0x00, 0x38, 0x1c, 0x00, 0x00, 0xa8, 0xe3, 0x00, 0x00,
  0x03, 0x00, 0x00, 0x00, 0x01, 0x00, 0x00, 0x00, 0x04, 0x00, 0x00, 0x00,
  0x76, 0xc5, 0xff, 0xff, 0x0c, 0x00, 0x00, 0x00, 0x1c, 0x00, 0x00, 0x00,
  0x3c, 0x00, 0x00, 0x00, 0x0f, 0x00, 0x00, 0x00, 0x73, 0x65, 0x72, 0x76,
  0x69, 0x6e, 0x67, 0x5f, 0x64, 0x65, 0x66, 0x61, 0x75, 0x6c, 0x74, 0x00,
  0x01, 0x00, 0x00, 0x00, 0x04, 0x00, 0x00, 0x00, 0x68, 0xff, 0xff, 0xff,
  0xdd, 0x00, 0x00, 0x00, 0x04, 0x00, 0x00, 0x00, 0x08, 0x00, 0x00, 0x00,
  0x6f, 0x75, 0x74, 0x70, 0x75, 0x74, 0x5f, 0x30, 0x00, 0x00, 0x00, 0x00,
  0x01, 0x00, 0x00, 0x00, 0x04, 0x00, 0x00, 0x00, 0xfe, 0xc4, 0xff, 0xff,
  0x04, 0x00, 0x00, 0x00, 0x0e, 0x00, 0x00, 0x00, 0x6b, 0x65, 0x72, 0x61,
  0x73, 0x5f, 0x74, 0x65, 0x6e, 0x73, 0x6f, 0x72, 0x5f, 0x33, 0x00, 0x00,
  0x03, 0x00, 0x00, 0x00, 0x5c, 0x00, 0x00, 0x00, 0x2c, 0x00, 0x00, 0x00,
  0x04, 0x00, 0x00, 0x00, 0xb8, 0xff, 0xff, 0xff, 0xe1, 0x00, 0x00, 0x00,
  0x04, 0x00, 0x00, 0x00, 0x13, 0x00, 0x00, 0x00, 0x43, 0x4f, 0x4e, 0x56,
  0x45, 0x52, 0x53, 0x49, 0x4f, 0x4e, 0x5f, 0x4d, 0x45, 0x54, 0x41, 0x44,
  0x41, 0x54, 0x41, 0x00, 0xdc, 0xff, 0xff, 0xff, 0xe0, 0x00, 0x00, 0x00,
  0x04, 0x00, 0x00, 0x00, 0x13, 0x00, 0x00, 0x00, 0x6d, 0x69, 0x6e, 0x5f,
  0x72, 0x75, 0x6e, 0x74, 0x69, 0x6d, 0x65, 0x5f, 0x76, 0x65, 0x72, 0x73,
  0x69, 0x6f, 0x6e, 0x00, 0x08, 0x00, 0x0c, 0x00, 0x08, 0x00, 0x04, 0x00,
  0x08, 0x00, 0x00, 0x00, 0xdf, 0x00, 0x00, 0x00, 0x04, 0x00, 0x00, 0x00,
  0x13, 0x00, 0x00, 0x00, 0x6d, 0x69, 0x6e, 0x5f, 0x72, 0x75, 0x6e, 0x74,
  0x69, 0x6d, 0x65, 0x5f, 0x76, 0x65, 0x72, 0x73, 0x69, 0x6f, 0x6e, 0x00,
  0xe2, 0x00, 0x00, 0x00, 0x18, 0x1b, 0x00, 0x00, 0x10, 0x1b, 0x00, 0x00,
  0xf4, 0x1a, 0x00, 0x00, 0xe0, 0x1a, 0x00, 0x00, 0xcc, 0x1a, 0x00, 0x00,
  0x9c, 0x1a, 0x00, 0x00, 0x8c, 0x0a, 0x00, 0x00, 0x7c, 0x08, 0x00, 0x00,
  0xec, 0x07, 0x00, 0x00, 0x5c, 0x07, 0x00, 0x00, 0x54, 0x07, 0x00, 0x00,
  0x4c, 0x07, 0x00, 0x00, 0x44, 0x07, 0x00, 0x00, 0x3c, 0x07, 0x00, 0x00,
  0x34, 0x07, 0x00, 0x00, 0x2c, 0x07, 0x00, 0x00, 0x24, 0x07, 0x00, 0x00,
  0x1c, 0x07, 0x00, 0x00, 0x14, 0x07, 0x00, 0x00, 0x0c, 0x07, 0x00, 0x00,
  0x04, 0x07, 0x00, 0x00, 0xfc, 0x06, 0x00, 0x00, 0xf4, 0x06, 0x00, 0x00,
  0xec, 0x06, 0x00, 0x00, 0xe4, 0x06, 0x00, 0x00, 0xdc, 0x06, 0x00, 0x00,
  0xd4, 0x06, 0x00, 0x00, 0xcc, 0x06, 0x00, 0x00, 0xc4, 0x06, 0x00, 0x00,
  0xbc, 0x06, 0x00, 0x00, 0xb4, 0x06, 0x00, 0x00, 0xac, 0x06, 0x00, 0x00,
  0xa4, 0x06, 0x00, 0x00, 0x9c, 0x06, 0x00, 0x00, 0x94, 0x06, 0x00, 0x00,
  0x8c, 0x06, 0x00, 0x00, 0x84, 0x06, 0x00, 0x00, 0x7c, 0x06, 0x00, 0x00,
  0x74, 0x06, 0x00, 0x00, 0x6c, 0x06, 0x00, 0x00, 0x64, 0x06, 0x00, 0x00,
  0x5c, 0x06, 0x00, 0x00, 0x54, 0x06, 0x00, 0x00, 0x4c, 0x06, 0x00, 0x00,
  0x44, 0x06, 0x00, 0x00, 0x3c, 0x06, 0x00, 0x00, 0x34, 0x06, 0x00, 0x00,
  0x2c, 0x06, 0x00, 0x00, 0x24, 0x06, 0x00, 0x00, 0x1c, 0x06, 0x00, 0x00,
  0x14, 0x06, 0x00, 0x00, 0x0c, 0x06, 0x00, 0x00, 0x04, 0x06, 0x00, 0x00,
  0xfc, 0x05, 0x00, 0x00, 0xf4, 0x05, 0x00, 0x00, 0xec, 0x05, 0x00, 0x00,
  0xe4, 0x05, 0x00, 0x00, 0xdc, 0x05, 0x00, 0x00, 0xd4, 0x05, 0x00, 0x00,
  0xcc, 0x05, 0x00, 0x00, 0xc4, 0x05, 0x00, 0x00, 0xbc, 0x05, 0x00, 0x00,
  0xb4, 0x05, 0x00, 0x00, 0xac, 0x05, 0x00, 0x00, 0xa4, 0x05, 0x00, 0x00,
  0x9c, 0x05, 0x00, 0x00, 0x94, 0x05, 0x00, 0x00, 0x8c, 0x05, 0x00, 0x00,
  0x84, 0x05, 0x00, 0x00, 0x7c, 0x05, 0x00, 0x00, 0x74, 0x05, 0x00, 0x00,
  0x6c, 0x05, 0x00, 0x00, 0x64, 0x05, 0x00, 0x00, 0x5c, 0x05, 0x00, 0x00,
  0x54, 0x05, 0x00, 0x00, 0x4c, 0x05, 0x00, 0x00, 0x44, 0x05, 0x00, 0x00,
  0x3c, 0x05, 0x00, 0x00, 0x34, 0x05, 0x00, 0x00, 0x2c, 0x05, 0x00, 0x00,
  0x24, 0x05, 0x00, 0x00, 0x1c, 0x05, 0x00, 0x00, 0x14, 0x05, 0x00, 0x00,
  0x0c, 0x05, 0x00, 0x00, 0x04, 0x05, 0x00, 0x00, 0xfc, 0x04, 0x00, 0x00,
  0xf4, 0x04, 0x00, 0x00, 0xec, 0x04, 0x00, 0x00, 0xe4, 0x04, 0x00, 0x00,
  0xdc, 0x04, 0x00, 0x00, 0xd4, 0x04, 0x00, 0x00, 0xcc, 0x04, 0x00, 0x00,
  0xc4, 0x04, 0x00, 0x00, 0xbc, 0x04, 0x00, 0x00, 0xb4, 0x04, 0x00, 0x00,
  0xac, 0x04, 0x00, 0x00, 0xa4, 0x04, 0x00, 0x00, 0x9c, 0x04, 0x00, 0x00,
  0x94, 0x04, 0x00, 0x00, 0x8c, 0x04, 0x00, 0x00, 0x84, 0x04, 0x00, 0x00,
  0x7c, 0x04, 0x00, 0x00, 0x74, 0x04, 0x00, 0x00, 0x6c, 0x04, 0x00, 0x00,
  0x64, 0x04, 0x00, 0x00, 0x5c, 0x04, 0x00, 0x00, 0x54, 0x04, 0x00, 0x00,
  0x4c, 0x04, 0x00, 0x00, 0x44, 0x04, 0x00, 0x00, 0x3c, 0x04, 0x00, 0x00,
  0x34, 0x04, 0x00, 0x00, 0x2c, 0x04, 0x00, 0x00, 0x24, 0x04, 0x00, 0x00,
  0x1c, 0x04, 0x00, 0x00, 0x14, 0x04, 0x00, 0x00, 0x0c, 0x04, 0x00, 0x00,
  0x04, 0x04, 0x00, 0x00, 0xfc, 0x03, 0x00, 0x00, 0xf4, 0x03, 0x00, 0x00,
  0xec, 0x03, 0x00, 0x00, 0xe4, 0x03, 0x00, 0x00, 0xdc, 0x03, 0x00, 0x00,
  0xd4, 0x03, 0x00, 0x00, 0xcc, 0x03, 0x00, 0x00, 0xc4, 0x03, 0x00, 0x00,
  0xbc, 0x03, 0x00, 0x00, 0xb4, 0x03, 0x00, 0x00, 0xac, 0x03, 0x00, 0x00,
  0xa4, 0x03, 0x00, 0x00, 0x9c, 0x03, 0x00, 0x00, 0x94, 0x03, 0x00, 0x00,
  0x8c, 0x03, 0x00, 0x00, 0x84, 0x03, 0x00, 0x00, 0x7c, 0x03, 0x00, 0x00,
  0x74, 0x03, 0x00, 0x00, 0x6c, 0x03, 0x00, 0x00, 0x64, 0x03, 0x00, 0x00,
  0x5c, 0x03, 0x00, 0x00, 0x54, 0x03, 0x00, 0x00, 0x4c, 0x03, 0x00, 0x00,
  0x44, 0x03, 0x00, 0x00, 0x3c, 0x03, 0x00, 0x00, 0x34, 0x03, 0x00, 0x00,
  0x2c, 0x03, 0x00, 0x00, 0x24, 0x03, 0x00, 0x00, 0x1c, 0x03, 0x00, 0x00,
  0x14, 0x03, 0x00, 0x00, 0x0c, 0x03, 0x00, 0x00, 0x04, 0x03, 0x00, 0x00,
  0xfc, 0x02, 0x00, 0x00, 0xf4, 0x02, 0x00, 0x00, 0xec, 0x02, 0x00, 0x00,
  0xe4, 0x02, 0x00, 0x00, 0xdc, 0x02, 0x00, 0x00, 0xd4, 0x02, 0x00, 0x00,
  0xcc, 0x02, 0x00, 0x00, 0xc4, 0x02, 0x00, 0x00, 0xbc, 0x02, 0x00, 0x00,
  0xb4, 0x02, 0x00, 0x00, 0xac, 0x02, 0x00, 0x00, 0xa4, 0x02, 0x00, 0x00,
  0x9c, 0x02, 0x00, 0x00, 0x94, 0x02, 0x00, 0x00, 0x8c, 0x02, 0x00, 0x00,
  0x84, 0x02, 0x00, 0x00, 0x7c, 0x02, 0x00, 0x00, 0x74, 0x02, 0x00, 0x00,
  0x6c, 0x02, 0x00, 0x00, 0x64, 0x02, 0x00, 0x00, 0x5c, 0x02, 0x00, 0x00,
  0x54, 0x02, 0x00, 0x00, 0x4c, 0x02, 0x00, 0x00, 0x44, 0x02, 0x00, 0x00,
  0x3c, 0x02, 0x00, 0x00, 0x34, 0x02, 0x00, 0x00, 0x2c, 0x02, 0x00, 0x00,
  0x24, 0x02, 0x00, 0x00, 0x1c, 0x02, 0x00, 0x00, 0x14, 0x02, 0x00, 0x00,
  0x0c, 0x02, 0x00, 0x00, 0x04, 0x02, 0x00, 0x00, 0xfc, 0x01, 0x00, 0x00,
  0xf4, 0x01, 0x00, 0x00, 0xec, 0x01, 0x00, 0x00, 0xe4, 0x01, 0x00, 0x00,
  0xdc, 0x01, 0x00, 0x00, 0xd4, 0x01, 0x00, 0x00, 0xcc, 0x01, 0x00, 0x00,
  0xc4, 0x01, 0x00, 0x00, 0xbc, 0x01, 0x00, 0x00, 0xb4, 0x01, 0x00, 0x00,
  0xac, 0x01, 0x00, 0x00, 0xa4, 0x01, 0x00, 0x00, 0x9c, 0x01, 0x00, 0x00,
  0x94, 0x01, 0x00, 0x00, 0x8c, 0x01, 0x00, 0x00, 0x84, 0x01, 0x00, 0x00,
  0x7c, 0x01, 0x00, 0x00, 0x74, 0x01, 0x00, 0x00, 0x6c, 0x01, 0x00, 0x00,
  0x64, 0x01, 0x00, 0x00, 0x5c, 0x01, 0x00, 0x00, 0x54, 0x01, 0x00, 0x00,
  0x4c, 0x01, 0x00, 0x00, 0x44, 0x01, 0x00, 0x00, 0x3c, 0x01, 0x00, 0x00,
  0x34, 0x01, 0x00, 0x00, 0x2c, 0x01, 0x00, 0x00, 0x24, 0x01, 0x00, 0x00,
  0x1c, 0x01, 0x00, 0x00, 0x14, 0x01, 0x00, 0x00, 0x0c, 0x01, 0x00, 0x00,
  0x04, 0x01, 0x00, 0x00, 0xfc, 0x00, 0x00, 0x00, 0xf4, 0x00, 0x00, 0x00,
  0xec, 0x00, 0x00, 0x00, 0xe4, 0x00, 0x00, 0x00, 0xdc, 0x00, 0x00, 0x00,
  0xd4, 0x00, 0x00, 0x00, 0xcc, 0x00, 0x00, 0x00, 0xc4, 0x00, 0x00, 0x00,
  0xbc, 0x00, 0x00, 0x00, 0xb4, 0x00, 0x00, 0x00, 0x94, 0x00, 0x00, 0x00,
  0x74, 0x00, 0x00, 0x00, 0x04, 0x00, 0x00, 0x00, 0x2a, 0xc9, 0xff, 0xff,
  0x04, 0x00, 0x00, 0x00, 0x60, 0x00, 0x00, 0x00, 0x0c, 0x00, 0x00, 0x00,
  0x08, 0x00, 0x0e, 0x00, 0x08, 0x00, 0x04, 0x00, 0x08, 0x00, 0x00, 0x00,
  0x10, 0x00, 0x00, 0x00, 0x28, 0x00, 0x00, 0x00, 0x00, 0x00, 0x06, 0x00,
  0x08, 0x00, 0x04, 0x00, 0x06, 0x00, 0x00, 0x00, 0x04, 0x00, 0x00, 0x00,
  0x01, 0x00, 0x00, 0x00, 0xeb, 0x03, 0x00, 0x00, 0x0c, 0x00, 0x18, 0x00,
  0x14, 0x00, 0x10, 0x00, 0x0c, 0x00, 0x04, 0x00, 0x0c, 0x00, 0x00, 0x00,
  0x27, 0xa4, 0xd0, 0x13, 0xdf, 0x29, 0x18, 0xcc, 0x02, 0x00, 0x00, 0x00,
  0x02, 0x00, 0x00, 0x00, 0x04, 0x00, 0x00, 0x00, 0x06, 0x00, 0x00, 0x00,
  0x32, 0x2e, 0x31, 0x39, 0x2e, 0x30, 0x00, 0x00, 0x96, 0xc9, 0xff, 0xff,
  0x04, 0x00, 0x00, 0x00, 0x10, 0x00, 0x00, 0x00, 0x00, 0x00, 0x00, 0x00,
  0x00, 0x00, 0x00, 0x00, 0x00, 0x00, 0x00, 0x00, 0x00, 0x00, 0x00, 0x00,
  0xb2, 0xc9, 0xff, 0xff, 0x04, 0x00, 0x00, 0x00, 0x10, 0x00, 0x00, 0x00,
  0x31, 0x2e, 0x31, 0x34, 0x2e, 0x30, 0x00, 0x00, 0x00, 0x00, 0x00, 0x00,
  0x00, 0x00, 0x00, 0x00, 0x44, 0x22, 0xff, 0xff, 0x48, 0x22, 0xff, 0xff,
  0x4c, 0x22, 0xff, 0xff, 0x50, 0x22, 0xff, 0xff, 0x54, 0x22, 0xff, 0xff,
  0x58, 0x22, 0xff, 0xff, 0x5c, 0x22, 0xff, 0xff, 0x60, 0x22, 0xff, 0xff,
  0x64, 0x22, 0xff, 0xff, 0x68, 0x22, 0xff, 0xff, 0x6c, 0x22, 0xff, 0xff,
  0x70, 0x22, 0xff, 0xff, 0x74, 0x22, 0xff, 0xff, 0x78, 0x22, 0xff, 0xff,
  0x7c, 0x22, 0xff, 0xff, 0x80, 0x22, 0xff, 0xff, 0x84, 0x22, 0xff, 0xff,
  0x88, 0x22, 0xff, 0xff, 0x8c, 0x22, 0xff, 0xff, 0x90, 0x22, 0xff, 0xff,
  0x94, 0x22, 0xff, 0xff, 0x98, 0x22, 0xff, 0xff, 0x9c, 0x22, 0xff, 0xff,
  0xa0, 0x22, 0xff, 0xff, 0xa4, 0x22, 0xff, 0xff, 0xa8, 0x22, 0xff, 0xff,
  0xac, 0x22, 0xff, 0xff, 0xb0, 0x22, 0xff, 0xff, 0xb4, 0x22, 0xff, 0xff,
  0xb8, 0x22, 0xff, 0xff, 0xbc, 0x22, 0xff, 0xff, 0xc0, 0x22, 0xff, 0xff,
  0xc4, 0x22, 0xff, 0xff, 0xc8, 0x22, 0xff, 0xff, 0xcc, 0x22, 0xff, 0xff,
  0xd0, 0x22, 0xff, 0xff, 0xd4, 0x22, 0xff, 0xff, 0xd8, 0x22, 0xff, 0xff,
  0xdc, 0x22, 0xff, 0xff, 0xe0, 0x22, 0xff, 0xff, 0xe4, 0x22, 0xff, 0xff,
  0xe8, 0x22, 0xff, 0xff, 0xec, 0x22, 0xff, 0xff, 0xf0, 0x22, 0xff, 0xff,
  0xf4, 0x22, 0xff, 0xff, 0xf8, 0x22, 0xff, 0xff, 0xfc, 0x22, 0xff, 0xff,
  0x00, 0x23, 0xff, 0xff, 0x04, 0x23, 0xff, 0xff, 0x08, 0x23, 0xff, 0xff,
  0x0c, 0x23, 0xff, 0xff, 0x10, 0x23, 0xff, 0xff, 0x14, 0x23, 0xff, 0xff,
  0x18, 0x23, 0xff, 0xff, 0x1c, 0x23, 0xff, 0xff, 0x20, 0x23, 0xff, 0xff,
  0x24, 0x23, 0xff, 0xff, 0x28, 0x23, 0xff, 0xff, 0x2c, 0x23, 0xff, 0xff,
  0x30, 0x23, 0xff, 0xff, 0x34, 0x23, 0xff, 0xff, 0x38, 0x23, 0xff, 0xff,
  0x3c, 0x23, 0xff, 0xff, 0x40, 0x23, 0xff, 0xff, 0x44, 0x23, 0xff, 0xff,
  0x48, 0x23, 0xff, 0xff, 0x4c, 0x23, 0xff, 0xff, 0x50, 0x23, 0xff, 0xff,
  0x54, 0x23, 0xff, 0xff, 0x58, 0x23, 0xff, 0xff, 0x5c, 0x23, 0xff, 0xff,
  0x60, 0x23, 0xff, 0xff, 0x64, 0x23, 0xff, 0xff, 0x68, 0x23, 0xff, 0xff,
  0x6c, 0x23, 0xff, 0xff, 0x70, 0x23, 0xff, 0xff, 0x74, 0x23, 0xff, 0xff,
  0x78, 0x23, 0xff, 0xff, 0x7c, 0x23, 0xff, 0xff, 0x80, 0x23, 0xff, 0xff,
  0x84, 0x23, 0xff, 0xff, 0x88, 0x23, 0xff, 0xff, 0x8c, 0x23, 0xff, 0xff,
  0x90, 0x23, 0xff, 0xff, 0x94, 0x23, 0xff, 0xff, 0x98, 0x23, 0xff, 0xff,
  0x9c, 0x23, 0xff, 0xff, 0xa0, 0x23, 0xff, 0xff, 0xa4, 0x23, 0xff, 0xff,
  0xa8, 0x23, 0xff, 0xff, 0xac, 0x23, 0xff, 0xff, 0xb0, 0x23, 0xff, 0xff,
  0xb4, 0x23, 0xff, 0xff, 0xb8, 0x23, 0xff, 0xff, 0xbc, 0x23, 0xff, 0xff,
  0xc0, 0x23, 0xff, 0xff, 0xc4, 0x23, 0xff, 0xff, 0xc8, 0x23, 0xff, 0xff,
  0xcc, 0x23, 0xff, 0xff, 0xd0, 0x23, 0xff, 0xff, 0xd4, 0x23, 0xff, 0xff,
  0xd8, 0x23, 0xff, 0xff, 0xdc, 0x23, 0xff, 0xff, 0xe0, 0x23, 0xff, 0xff,
  0xe4, 0x23, 0xff, 0xff, 0xe8, 0x23, 0xff, 0xff, 0xec, 0x23, 0xff, 0xff,
  0xf0, 0x23, 0xff, 0xff, 0xf4, 0x23, 0xff, 0xff, 0xf8, 0x23, 0xff, 0xff,
  0xfc, 0x23, 0xff, 0xff, 0x00, 0x24, 0xff, 0xff, 0x04, 0x24, 0xff, 0xff,
  0x08, 0x24, 0xff, 0xff, 0x0c, 0x24, 0xff, 0xff, 0x10, 0x24, 0xff, 0xff,
  0x14, 0x24, 0xff, 0xff, 0x18, 0x24, 0xff, 0xff, 0x1c, 0x24, 0xff, 0xff,
  0x20, 0x24, 0xff, 0xff, 0x24, 0x24, 0xff, 0xff, 0x28, 0x24, 0xff, 0xff,
  0x2c, 0x24, 0xff, 0xff, 0x30, 0x24, 0xff, 0xff, 0x34, 0x24, 0xff, 0xff,
  0x38, 0x24, 0xff, 0xff, 0x3c, 0x24, 0xff, 0xff, 0x40, 0x24, 0xff, 0xff,
  0x44, 0x24, 0xff, 0xff, 0x48, 0x24, 0xff, 0xff, 0x4c, 0x24, 0xff, 0xff,
  0x50, 0x24, 0xff, 0xff, 0x54, 0x24, 0xff, 0xff, 0x58, 0x24, 0xff, 0xff,
  0x5c, 0x24, 0xff, 0xff, 0x60, 0x24, 0xff, 0xff, 0x64, 0x24, 0xff, 0xff,
  0x68, 0x24, 0xff, 0xff, 0x6c, 0x24, 0xff, 0xff, 0x70, 0x24, 0xff, 0xff,
  0x74, 0x24, 0xff, 0xff, 0x78, 0x24, 0xff, 0xff, 0x7c, 0x24, 0xff, 0xff,
  0x80, 0x24, 0xff, 0xff, 0x84, 0x24, 0xff, 0xff, 0x88, 0x24, 0xff, 0xff,
  0x8c, 0x24, 0xff, 0xff, 0x90, 0x24, 0xff, 0xff, 0x94, 0x24, 0xff, 0xff,
  0x98, 0x24, 0xff, 0xff, 0x9c, 0x24, 0xff, 0xff, 0xa0, 0x24, 0xff, 0xff,
  0xa4, 0x24, 0xff, 0xff, 0xa8, 0x24, 0xff, 0xff, 0xac, 0x24, 0xff, 0xff,
  0xb0, 0x24, 0xff, 0xff, 0xb4, 0x24, 0xff, 0xff, 0xb8, 0x24, 0xff, 0xff,
  0xbc, 0x24, 0xff, 0xff, 0xc0, 0x24, 0xff, 0xff, 0xc4, 0x24, 0xff, 0xff,
  0xc8, 0x24, 0xff, 0xff, 0xcc, 0x24, 0xff, 0xff, 0xd0, 0x24, 0xff, 0xff,
  0xd4, 0x24, 0xff, 0xff, 0xd8, 0x24, 0xff, 0xff, 0xdc, 0x24, 0xff, 0xff,
  0xe0, 0x24, 0xff, 0xff, 0xe4, 0x24, 0xff, 0xff, 0xe8, 0x24, 0xff, 0xff,
  0xec, 0x24, 0xff, 0xff, 0xf0, 0x24, 0xff, 0xff, 0xf4, 0x24, 0xff, 0xff,
  0xf8, 0x24, 0xff, 0xff, 0xfc, 0x24, 0xff, 0xff, 0x00, 0x25, 0xff, 0xff,
  0x04, 0x25, 0xff, 0xff, 0x08, 0x25, 0xff, 0xff, 0x0c, 0x25, 0xff, 0xff,
  0x10, 0x25, 0xff, 0xff, 0x14, 0x25, 0xff, 0xff, 0x18, 0x25, 0xff, 0xff,
  0x1c, 0x25, 0xff, 0xff, 0x20, 0x25, 0xff, 0xff, 0x24, 0x25, 0xff, 0xff,
  0x28, 0x25, 0xff, 0xff, 0x2c, 0x25, 0xff, 0xff, 0x30, 0x25, 0xff, 0xff,
  0x34, 0x25, 0xff, 0xff, 0x38, 0x25, 0xff, 0xff, 0x3c, 0x25, 0xff, 0xff,
  0x40, 0x25, 0xff, 0xff, 0x44, 0x25, 0xff, 0xff, 0x48, 0x25, 0xff, 0xff,
  0x4c, 0x25, 0xff, 0xff, 0x50, 0x25, 0xff, 0xff, 0x54, 0x25, 0xff, 0xff,
  0x58, 0x25, 0xff, 0xff, 0x5c, 0x25, 0xff, 0xff, 0x60, 0x25, 0xff, 0xff,
  0x64, 0x25, 0xff, 0xff, 0x68, 0x25, 0xff, 0xff, 0x6c, 0x25, 0xff, 0xff,
  0x70, 0x25, 0xff, 0xff, 0x74, 0x25, 0xff, 0xff, 0x78, 0x25, 0xff, 0xff,
  0x7c, 0x25, 0xff, 0xff, 0x80, 0x25, 0xff, 0xff, 0x84, 0x25, 0xff, 0xff,
  0x88, 0x25, 0xff, 0xff, 0x8c, 0x25, 0xff, 0xff, 0x90, 0x25, 0xff, 0xff,
  0x94, 0x25, 0xff, 0xff, 0x22, 0xcd, 0xff, 0xff, 0x04, 0x00, 0x00, 0x00,
  0x80, 0x00, 0x00, 0x00, 0x81, 0x7f, 0x7f, 0x7f, 0x81, 0x7f, 0x81, 0x7f,
  0x7f, 0x7f, 0x81, 0x7f, 0x7f, 0x81, 0x7f, 0x81, 0x81, 0x7f, 0x81, 0x7f,
  0x81, 0x7f, 0x7f, 0x81, 0x7f, 0x81, 0x81, 0x7f, 0x81, 0x81, 0x7f, 0x7f,
  0x81, 0x7f, 0x81, 0x81, 0x81, 0x81, 0x7f, 0x81, 0x7f, 0x81, 0x7f, 0x81,
  0x7f, 0x7f, 0x81, 0x81, 0x7f, 0x81, 0x7f, 0x81, 0x7f, 0x81, 0x81, 0x7f,
  0x7f, 0x7f, 0x81, 0x7f, 0x7f, 0x7f, 0x7f, 0x81, 0x7f, 0x81, 0x7f, 0x81,
  0x7f, 0x7f, 0x81, 0x81, 0x7f, 0x81, 0x81, 0x81, 0x81, 0x81, 0x81, 0x7f,
  0x7f, 0x7f, 0x81, 0x7f, 0x7f, 0x81, 0x81, 0x81, 0x81, 0x7f, 0x7f, 0x7f,
  0x7f, 0x81, 0x81, 0x81, 0x81, 0x81, 0x7f, 0x81, 0x7f, 0x7f, 0x81, 0x81,
  0x7f, 0x7f, 0x7f, 0x81, 0x7f, 0x7f, 0x7f, 0x81, 0x81, 0x7f, 0x7f, 0x81,
  0x7f, 0x7f, 0x81, 0x7f, 0x81, 0x81, 0x7f, 0x7f, 0x81, 0x81, 0x7f, 0x7f,
  0xae, 0xcd, 0xff, 0xff, 0x04, 0x00, 0x00, 0x00, 0x80, 0x00, 0x00, 0x00,
  0x86, 0x94, 0x93, 0x94, 0x83, 0xa0, 0x80, 0x81, 0x8f, 0x92, 0x84, 0x90,
  0x93, 0x9c, 0x91, 0x82, 0x93, 0x96, 0x94, 0x8c, 0x91, 0x92, 0x86, 0x96,
  0x82, 0x9b, 0x97, 0x92, 0x92, 0x89, 0x94, 0x81, 0x72, 0x79, 0x7d, 0x7e,
  0x71, 0x7d, 0x71, 0x71, 0x7b, 0x7d, 0x73, 0x78, 0x7d, 0x7a, 0x7c, 0x73,
  0x77, 0x7e, 0x7d, 0x74, 0x7a, 0x7c, 0x6d, 0x7f, 0x73, 0x7f, 0x7f, 0x7b,
  0x7c, 0x73, 0x7d, 0x72, 0x87, 0x8a, 0x8f, 0x87, 0x86, 0x8f, 0x8e, 0x8e,
  0x85, 0x86, 0x8f, 0x8e, 0x86, 0x8c, 0x85, 0x86, 0x8e, 0x8f, 0x85, 0x8e,
  0x8d, 0x85, 0x8a, 0x84, 0x8f, 0x8e, 0x8e, 0x8f, 0x8d, 0x8e, 0x86, 0x8f,
  0x86, 0x95, 0x93, 0x95, 0x83, 0xa0, 0x81, 0x81, 0x90, 0x92, 0x83, 0x8f,
  0x94, 0x9c, 0x91, 0x82, 0x94, 0x97, 0x94, 0x8d, 0x91, 0x92, 0x85, 0x95,
  0x82, 0x9b, 0x94, 0x92, 0x93, 0x8a, 0x94, 0x81, 0x3a, 0xce, 0xff, 0xff,
  0x04, 0x00, 0x00, 0x00, 0x00, 0x02, 0x00, 0x00, 0x5e, 0xf2, 0xff, 0xff,
  0x2b, 0xf3, 0x00, 0x00, 0x16, 0x10, 0x00, 0x00, 0xcf, 0x2a, 0x00, 0x00,
  0xf4, 0x73, 0xff, 0xff, 0x8e, 0x2a, 0x00, 0x00, 0x93, 0x86, 0xff, 0xff,
  0xd6, 0x57, 0xff, 0xff, 0xab, 0x0c, 0x00, 0x00, 0x8a, 0xea, 0x00, 0x00,
  0xff, 0xee, 0xff, 0xff, 0x60, 0x1e, 0x00, 0x00, 0x46, 0x26, 0x01, 0x00,
  0x36, 0x5b, 0x00, 0x00, 0x91, 0x38, 0x00, 0x00, 0xe2, 0xa7, 0xff, 0xff,
  0x41, 0x7b, 0x0b, 0x00, 0x08, 0x15, 0x00, 0x00, 0x8b, 0x2d, 0x00, 0x00,
  0x5d, 0x06, 0x00, 0x00, 0x6c, 0x16, 0x00, 0x00, 0x0b, 0x13, 0x00, 0x00,
  0x0b, 0xf0, 0xff, 0xff, 0x86, 0xff, 0x00, 0x00, 0xe8, 0xdd, 0xff, 0xff,
  0x8e, 0xf6, 0x00, 0x00, 0xf9, 0x80, 0x00, 0x00, 0xc9, 0x0f, 0x00, 0x00,
  0x81, 0x1a, 0x02, 0x00, 0x82, 0xda, 0xff, 0xff, 0x35, 0x2e, 0x00, 0x00,
  0x68, 0xc8, 0xff, 0xff, 0x00, 0x1a, 0x07, 0x00, 0xab, 0x6d, 0x02, 0x00,
  0x43, 0x7c, 0x05, 0x00, 0x42, 0xf3, 0x04, 0x00, 0x4b, 0x2f, 0x02, 0x00,
  0x57, 0xb8, 0x0e, 0x00, 0x76, 0x46, 0x0a, 0x00, 0x56, 0xc3, 0x0f, 0x00,
  0xc4, 0xdf, 0x58, 0x00, 0xbc, 0x67, 0x06, 0x00, 0x71, 0x36, 0x0e, 0x00,
  0x51, 0x8c, 0x05, 0x00, 0xe6, 0xec, 0x03, 0x00, 0x1f, 0x16, 0x03, 0x00,
  0x9d, 0xa0, 0x18, 0x00, 0x17, 0xe7, 0x05, 0x00, 0x9d, 0x87, 0x02, 0x00,
  0x1f, 0x68, 0x07, 0x00, 0xf5, 0x26, 0x02, 0x00, 0xf4, 0xc2, 0x0c, 0x00,
  0xa9, 0x79, 0x0b, 0x00, 0x3f, 0xd2, 0x04, 0x00, 0x35, 0x55, 0x03, 0x00,
  0x5c, 0x54, 0x09, 0x00, 0xbb, 0x97, 0x03, 0x00, 0xf9, 0xe0, 0x03, 0x00,
  0x19, 0x11, 0x06, 0x00, 0x8b, 0xc1, 0x04, 0x00, 0x2c, 0x68, 0x27, 0x00,
  0x6f, 0x32, 0x05, 0x00, 0xd7, 0xe4, 0x04, 0x00, 0xe1, 0xee, 0x03, 0x00,
  0x27, 0xe8, 0xff, 0xff, 0x04, 0xff, 0xff, 0xff, 0xc4, 0x27, 0x00, 0x00,
  0x5c, 0xf4, 0xff, 0xff, 0x1f, 0xee, 0xff, 0xff, 0xa8, 0x19, 0x00, 0x00,
  0x73, 0x14, 0x00, 0x00, 0x95, 0x0c, 0x00, 0x00, 0xe3, 0xa5, 0xff, 0xff,
  0x99, 0xed, 0xff, 0xff, 0xa4, 0x6d, 0x00, 0x00, 0x12, 0x14, 0x00, 0x00,
  0xba, 0xf6, 0xff, 0xff, 0x06, 0x09, 0x00, 0x00, 0xd8, 0xd8, 0xff, 0xff,
  0x1d, 0xf1, 0xff, 0xff, 0x2f, 0x26, 0x00, 0x00, 0xf4, 0x1c, 0x00, 0x00,
  0x5b, 0xc6, 0xff, 0xff, 0xaf, 0x08, 0x00, 0x00, 0x9c, 0x06, 0x00, 0x00,
  0xa1, 0xc5, 0xff, 0xff, 0xac, 0xfe, 0xff, 0xff, 0x89, 0xe0, 0xff, 0xff,
  0x00, 0x53, 0x00, 0x00, 0x89, 0x0c, 0x00, 0x00, 0x60, 0x12, 0x00, 0x00,
  0x33, 0x0a, 0x00, 0x00, 0xe4, 0x08, 0x00, 0x00, 0x36, 0x20, 0x00, 0x00,
  0x8e, 0xf2, 0xff, 0xff, 0xb5, 0x12, 0x00, 0x00, 0xf5, 0xda, 0xff, 0xff,
  0x38, 0x36, 0x00, 0x00, 0x30, 0x19, 0x00, 0x00, 0x8f, 0x35, 0x00, 0x00,
  0xa8, 0xbe, 0xff, 0xff, 0xeb, 0xba, 0x00, 0x00, 0xf1, 0xcf, 0xff, 0xff,
  0x55, 0xb5, 0xff, 0xff, 0x33, 0x2d, 0x00, 0x00, 0x22, 0x2a, 0x00, 0x00,
  0xac, 0x83, 0xff, 0xff, 0x77, 0x14, 0x00, 0x00, 0xde, 0x15, 0x00, 0x00,
  0xab, 0x7b, 0x00, 0x00, 0x26, 0x1c, 0x00, 0x00, 0xdb, 0xa5, 0xff, 0xff,
  0x54, 0x65, 0x00, 0x00, 0x98, 0x37, 0x00, 0x00, 0x34, 0x51, 0x00, 0x00,
  0x15, 0x0b, 0x00, 0x00, 0xd7, 0x35, 0x00, 0x00, 0xd1, 0x26, 0x00, 0x00,
  0xbc, 0xdd, 0xff, 0xff, 0xf5, 0x15, 0x00, 0x00, 0x30, 0x7f, 0xff, 0xff,
  0x14, 0x7d, 0x01, 0x00, 0x93, 0x11, 0x00, 0x00, 0x8c, 0x1d, 0x00, 0x00,
  0x85, 0x28, 0x00, 0x00, 0xb4, 0xfd, 0xff, 0xff, 0xd5, 0x65, 0x00, 0x00,
  0xce, 0xf5, 0xfe, 0xff, 0x46, 0xd0, 0xff, 0xff, 0x04, 0x00, 0x00, 0x00,
  0x00, 0x10, 0x00, 0x00, 0x28, 0x1c, 0x24, 0x51, 0x45, 0xe4, 0xd9, 0x33,
  0xfd, 0xf1, 0xd4, 0x00, 0xe2, 0xcd, 0x06, 0x81, 0x0e, 0x43, 0x36, 0xda,
  0x03, 0x47, 0xac, 0xd6, 0xd8, 0x28, 0x28, 0xaf, 0x03, 0xef, 0x06, 0x2d,
  0x9a, 0xe2, 0x55, 0x07, 0x1e, 0x6e, 0x5b, 0x2b, 0xc9, 0x08, 0x2a, 0x9c,
  0xcf, 0x3e, 0xfa, 0x48, 0x4c, 0xee, 0x42, 0xdb, 0x3e, 0xc9, 0x68, 0x23,
  0xf2, 0x64, 0xdd, 0xa3, 0xe7, 0xff, 0xf9, 0x81, 0x7f, 0xeb, 0xd5, 0xe5,
  0x24, 0xf7, 0xdc, 0xdb, 0xc9, 0xe0, 0xca, 0x28, 0x0a, 0xfa, 0xe2, 0x13,
  0x3e, 0x5d, 0xe0, 0x04, 0x08, 0x35, 0xec, 0x4e, 0x21, 0x5a, 0x2c, 0x06,
  0x12, 0xc6, 0xf2, 0x26, 0x05, 0xb1, 0x4e, 0xc2, 0xc8, 0x22, 0xc2, 0x33,
  0x28, 0xa2, 0xaa, 0x17, 0xcc, 0xd8, 0xee, 0x0f, 0x2d, 0xe2, 0xdc, 0xc1,
  0x17, 0xd9, 0xfa, 0xd6, 0xdd, 0xfb, 0x31, 0x51, 0xf0, 0x7f, 0xa8, 0x0d,
  0x13, 0xfc, 0xcd, 0x06, 0x0a, 0xf2, 0x0f, 0x5c, 0x53, 0x2a, 0xe5, 0xfa,
  0x05, 0xd8, 0x32, 0xdf, 0x10, 0xb9, 0xb2, 0xb7, 0xa2, 0x5b, 0x21, 0xdc,
  0x81, 0x12, 0xd1, 0x23, 0x16, 0xe4, 0xf5, 0xdf, 0xd6, 0xfd, 0x5e, 0x08,
  0xf5, 0x00, 0xc1, 0x03, 0xbd, 0xb3, 0x1d, 0x40, 0xf2, 0x43, 0xd7, 0x53,
  0x62, 0x6c, 0xd0, 0x09, 0x3a, 0xdb, 0xfe, 0x02, 0xeb, 0x2b, 0x3a, 0x22,
  0x48, 0xe9, 0xd9, 0x81, 0xf9, 0x1d, 0xba, 0x7f, 0xde, 0x0e, 0x17, 0xfd,
  0x6f, 0xab, 0x2a, 0x1e, 0x00, 0xf4, 0x6f, 0xd3, 0x0f, 0x0c, 0x40, 0x26,
  0xb7, 0x44, 0x41, 0x38, 0xcd, 0xe5, 0x07, 0x17, 0xbe, 0x12, 0x63, 0xd4,
  0xed, 0xec, 0xd2, 0x17, 0x00, 0x0a, 0x00, 0xf9, 0x08, 0x7f, 0xcc, 0xe0,
  0xe5, 0xee, 0x69, 0x28, 0xc3, 0x1d, 0xee, 0xdb, 0xe4, 0xe7, 0x36, 0xe2,
  0xaa, 0xd2, 0x17, 0x08, 0xe3, 0xff, 0x1e, 0x3e, 0xd5, 0xeb, 0xb0, 0xcf,
  0x4a, 0x2e, 0x81, 0x18, 0x66, 0xef, 0xf3, 0xcb, 0x21, 0xba, 0xf9, 0x45,
  0xee, 0x19, 0xfc, 0xf3, 0xae, 0x8a, 0x9f, 0xae, 0xe3, 0xdf, 0x20, 0x30,
  0x1f, 0x20, 0x10, 0xf4, 0x25, 0xd5, 0x34, 0x07, 0xaf, 0x0a, 0xf5, 0xbb,
  0xf8, 0x32, 0xc9, 0x31, 0x49, 0x6b, 0xc7, 0xff, 0x3a, 0x76, 0xd5, 0x30,
  0x0c, 0x9f, 0xc1, 0x81, 0xbd, 0xef, 0x0f, 0x57, 0x32, 0x1a, 0xc2, 0xfb,
  0x6a, 0x37, 0xc0, 0x68, 0x0a, 0x4a, 0xf2, 0x6f, 0xd3, 0x26, 0x0e, 0xf6,
  0x62, 0x01, 0x01, 0xf5, 0xe8, 0xef, 0x2d, 0x53, 0x39, 0x57, 0xe0, 0x3d,
  0x39, 0x8c, 0xde, 0x00, 0x31, 0x7f, 0x49, 0xc2, 0xeb, 0x10, 0x2d, 0xce,
  0xee, 0x37, 0x25, 0xcc, 0x01, 0xcf, 0xd1, 0x04, 0x09, 0x7f, 0xe9, 0xff,
  0x4f, 0x31, 0x0f, 0xe9, 0x21, 0xef, 0x0f, 0xd9, 0x23, 0x4d, 0x1e, 0x22,
  0x2d, 0x60, 0xb0, 0xc7, 0x0c, 0xd2, 0xc7, 0x26, 0x08, 0x39, 0xc1, 0x1b,
  0xf9, 0xca, 0x17, 0xed, 0xba, 0x0a, 0xba, 0x47, 0x01, 0x21, 0x9e, 0x4d,
  0xf0, 0xf4, 0x12, 0xf6, 0xd2, 0x7f, 0xfa, 0x16, 0xf8, 0xfd, 0xdc, 0xcc,
  0xfa, 0xc9, 0x47, 0x9c, 0xea, 0x5b, 0xec, 0x17, 0xda, 0xc7, 0x07, 0x46,
  0xc5, 0x22, 0xc3, 0x3d, 0xe1, 0x25, 0xaf, 0x22, 0x28, 0x01, 0x02, 0xe8,
  0x21, 0x7f, 0x3e, 0x28, 0x61, 0x4c, 0xcb, 0xed, 0x07, 0xb9, 0xd5, 0xbc,
  0xd7, 0x46, 0xd2, 0xe2, 0xff, 0xe5, 0xe7, 0xe8, 0xb9, 0xd5, 0x33, 0x1a,
  0x0c, 0x3a, 0xf2, 0x3f, 0x57, 0xb2, 0x58, 0xb9, 0x2b, 0xe7, 0x4b, 0xce,
  0x01, 0x0a, 0xa0, 0x81, 0xb7, 0x98, 0xfb, 0x7b, 0x84, 0xdd, 0x09, 0x3d,
  0xfa, 0x2c, 0xc8, 0x41, 0x25, 0xb9, 0x36, 0x11, 0x17, 0xff, 0x2b, 0xf8,
  0xc9, 0x73, 0xfc, 0x0a, 0x3d, 0x11, 0xfd, 0x8b, 0x81, 0x25, 0x39, 0x38,
  0x28, 0xeb, 0x1d, 0xff, 0x4c, 0x5d, 0xec, 0x22, 0xed, 0x24, 0xa0, 0xf0,
  0xf0, 0x1a, 0xf5, 0xfe, 0xda, 0x08, 0xed, 0x3b, 0x18, 0x02, 0x1b, 0xce,
  0x02, 0x16, 0x25, 0x7f, 0xec, 0xf8, 0xe8, 0xba, 0x0c, 0xef, 0x12, 0x2b,
  0x05, 0x29, 0xe0, 0x14, 0xc7, 0xd8, 0x1b, 0xf5, 0x38, 0x81, 0xf3, 0x2b,
  0x2e, 0x38, 0x8c, 0xdd, 0x43, 0xf0, 0xce, 0xef, 0x1c, 0x21, 0xb8, 0x18,
  0xf8, 0xbc, 0xbf, 0xfb, 0x14, 0x81, 0xd8, 0xfc, 0x5d, 0xd6, 0xf9, 0xda,
  0xe2, 0xb7, 0xc7, 0xd3, 0x09, 0x03, 0x1c, 0xf7, 0x4a, 0xea, 0x20, 0xee,
  0x45, 0xfd, 0x0f, 0x1c, 0x0b, 0x3a, 0x16, 0xf6, 0xe5, 0x2b, 0xb9, 0xe1,
  0xf6, 0x0b, 0xec, 0x07, 0xef, 0xe8, 0x81, 0xcb, 0x2e, 0x3c, 0xfd, 0xb0,
  0x68, 0xbe, 0xaf, 0xd1, 0xf3, 0xa0, 0x24, 0x02, 0x0e, 0x3b, 0xf2, 0x35,
  0x63, 0xe0, 0xf0, 0xd2, 0xde, 0xbf, 0x09, 0xcc, 0x2a, 0xf7, 0x31, 0x13,
  0x21, 0x05, 0xcc, 0xbb, 0x81, 0xff, 0xfa, 0xdd, 0x05, 0x21, 0x17, 0xb3,
  0xdf, 0x1d, 0xd9, 0xe5, 0x39, 0xaf, 0xd5, 0x3f, 0xc8, 0xc7, 0x31, 0x32,
  0xc7, 0xfd, 0x01, 0x86, 0x1a, 0x12, 0x14, 0x02, 0x20, 0xf5, 0xc4, 0x90,
  0x10, 0x4b, 0xea, 0x4d, 0xd2, 0xf3, 0xf3, 0x99, 0x0b, 0x28, 0xaf, 0x2c,
  0xfe, 0xe5, 0x7f, 0x18, 0xaf, 0x5e, 0x0e, 0x26, 0x06, 0xd9, 0xfa, 0xd0,
  0x03, 0x08, 0xc0, 0x7b, 0x36, 0x29, 0x48, 0xf1, 0x53, 0xf9, 0xbe, 0x08,
  0xf5, 0x19, 0xf4, 0xeb, 0x16, 0x41, 0x3a, 0x06, 0x3e, 0x55, 0x50, 0x6f,
  0x00, 0xce, 0x81, 0x5e, 0x4e, 0x77, 0x6f, 0x5f, 0xfe, 0x87, 0xca, 0xe3,
  0xba, 0x04, 0x2e, 0x20, 0xc9, 0xaa, 0x51, 0xf9, 0xfe, 0x26, 0x90, 0x23,
  0xda, 0x2a, 0xd2, 0x13, 0x37, 0x3a, 0x7f, 0xfd, 0xa0, 0x07, 0x7e, 0xe6,
  0x48, 0xd9, 0x95, 0x26, 0x00, 0xde, 0x00, 0xeb, 0x37, 0x62, 0x0d, 0xa9,
  0xc1, 0x39, 0x2a, 0xde, 0x4b, 0x2b, 0x37, 0x2d, 0x81, 0xdf, 0xef, 0x13,
  0xd3, 0x1f, 0x17, 0x08, 0xda, 0x24, 0x36, 0xc8, 0x34, 0x0c, 0xec, 0x22,
  0x81, 0xa7, 0xce, 0x06, 0x16, 0x37, 0xbf, 0xf4, 0x94, 0xce, 0x2a, 0xae,
  0xbb, 0x08, 0xd8, 0xb6, 0x08, 0x19, 0xde, 0x4e, 0x67, 0xbf, 0xc2, 0xce,
  0xd1, 0x51, 0x0c, 0x42, 0x25, 0x02, 0xcb, 0x06, 0x32, 0xef, 0x94, 0x71,
  0xc4, 0x7f, 0xd5, 0xb6, 0x12, 0x62, 0xd9, 0xbe, 0xc9, 0x9a, 0x96, 0x69,
  0x43, 0x69, 0xf7, 0x53, 0x35, 0xb5, 0xfb, 0xde, 0xcf, 0x28, 0x34, 0x00,
  0xf2, 0x84, 0x95, 0xd5, 0x44, 0xd3, 0x0e, 0xcd, 0x14, 0x54, 0x34, 0x8c,
  0xf7, 0x1c, 0x3e, 0xee, 0x07, 0x01, 0xc2, 0xe3, 0xe3, 0x0c, 0xe5, 0x32,
  0xe9, 0x11, 0xef, 0x34, 0xdb, 0xbc, 0x00, 0x1b, 0xb1, 0xe5, 0x81, 0xfe,
  0xf4, 0xdc, 0x12, 0xb8, 0x45, 0xd0, 0xc4, 0xe7, 0xef, 0x36, 0x04, 0xfd,
  0x0f, 0xe4, 0xc8, 0xf2, 0x00, 0x10, 0x05, 0x18, 0x0e, 0xcb, 0xe5, 0xe3,
  0xec, 0x7f, 0x2e, 0x20, 0x09, 0xe3, 0xdd, 0xfc, 0xe2, 0xe6, 0x1f, 0xe3,
  0xc3, 0x2b, 0xe9, 0xcf, 0xdb, 0xdd, 0x28, 0xfa, 0x4d, 0xa7, 0xd5, 0xf7,
  0x7f, 0xef, 0xe3, 0x5f, 0xb2, 0x17, 0x5c, 0x0e, 0x44, 0xf8, 0x77, 0x0f,
  0x41, 0x1a, 0xcd, 0x21, 0x44, 0xc2, 0x2f, 0x15, 0x53, 0x34, 0xe8, 0xf0,
  0xe5, 0x0a, 0xf5, 0x11, 0xba, 0xe7, 0x95, 0x2f, 0x25, 0xf7, 0xfb, 0x3b,
  0x06, 0xeb, 0xef, 0x93, 0x07, 0x4b, 0x35, 0x25, 0x81, 0x0c, 0x34, 0xe5,
  0x0d, 0xe6, 0x15, 0xe2, 0x08, 0xd6, 0xf2, 0x0f, 0x6c, 0x0c, 0x05, 0x0e,
  0x1a, 0x26, 0x4c, 0xe9, 0xb4, 0xda, 0xdf, 0x06, 0xc9, 0xfa, 0x09, 0x23,
  0x51, 0x16, 0x81, 0x1c, 0x14, 0xb4, 0xe2, 0xd6, 0x52, 0x37, 0xd0, 0xd1,
  0x11, 0xbb, 0x19, 0xe2, 0xf9, 0x19, 0x33, 0x1f, 0xed, 0xf7, 0x8c, 0xda,
  0x38, 0xf9, 0x22, 0xf4, 0x8d, 0x7f, 0x0a, 0x68, 0xe3, 0xc0, 0x07, 0x29,
  0x8e, 0x7c, 0xf0, 0x88, 0x79, 0xf9, 0xb5, 0xf6, 0x73, 0x9c, 0xfd, 0xe0,
  0x04, 0x14, 0xee, 0xcf, 0xd3, 0x7f, 0xc9, 0x5d, 0x9a, 0x11, 0x47, 0xe2,
  0xeb, 0x29, 0xd6, 0x13, 0xac, 0xa2, 0x01, 0xe4, 0x8f, 0xd4, 0x1c, 0x59,
  0x72, 0xa2, 0xdd, 0xb4, 0x31, 0xf0, 0xc9, 0x99, 0x18, 0x19, 0xb4, 0xeb,
  0x21, 0xf7, 0xc5, 0x19, 0x55, 0xb3, 0xfc, 0xed, 0xbe, 0x8a, 0x8e, 0x16,
  0xdd, 0x15, 0x7f, 0xe6, 0x37, 0x03, 0x23, 0xcc, 0x7f, 0xd5, 0xd6, 0xe7,
  0xeb, 0x1c, 0x1e, 0xdc, 0x28, 0xf0, 0x12, 0xf2, 0x43, 0xf3, 0x3c, 0xe4,
  0xd2, 0xf3, 0x32, 0x1f, 0xc3, 0xca, 0x0b, 0x08, 0xa5, 0xfd, 0xd6, 0xbf,
  0x28, 0xde, 0xe0, 0xf9, 0x1b, 0xf8, 0xed, 0xf7, 0x31, 0x00, 0x09, 0x23,
  0xd8, 0x40, 0x22, 0x03, 0x17, 0x27, 0x1a, 0x28, 0x0f, 0x1b, 0x41, 0x24,
  0x81, 0x29, 0xf6, 0x0a, 0x52, 0xd1, 0x00, 0x0a, 0x17, 0x18, 0x7f, 0xe1,
  0x2b, 0xf7, 0x5b, 0x12, 0x81, 0x9c, 0x1b, 0xc4, 0x0c, 0x04, 0xfa, 0xbc,
  0x02, 0x96, 0x68, 0xf4, 0xed, 0xb8, 0x62, 0x60, 0x4d, 0xe0, 0x43, 0xf3,
  0xbf, 0x33, 0x61, 0x4a, 0x0a, 0xf0, 0xea, 0x58, 0x2f, 0x54, 0x0a, 0xce,
  0xeb, 0x4c, 0x81, 0xcb, 0x58, 0xd7, 0x3d, 0xc2, 0x1c, 0xb3, 0xe1, 0x0c,
  0xd8, 0x03, 0xfd, 0xf3, 0x57, 0x29, 0x2d, 0x1d, 0xd3, 0x09, 0xf6, 0x14,
  0xb3, 0x11, 0x22, 0xef, 0x30, 0x25, 0xd0, 0x41, 0xb5, 0x8e, 0x18, 0xf4,
  0xe3, 0x52, 0xb6, 0xdf, 0xae, 0x26, 0x1f, 0xd3, 0x92, 0xb1, 0x7a, 0x00,
  0xba, 0x14, 0x53, 0xf6, 0x7f, 0xa2, 0xd2, 0xcb, 0xf3, 0x0c, 0xe2, 0x11,
  0x13, 0xcb, 0x24, 0xee, 0x10, 0xf2, 0x07, 0xe4, 0xf5, 0x35, 0x9b, 0xb5,
  0x83, 0xac, 0x00, 0x27, 0x50, 0xc2, 0xe8, 0xee, 0xd8, 0x1a, 0xee, 0x20,
  0x8e, 0xe3, 0x03, 0x5e, 0xd4, 0x9a, 0xc4, 0x81, 0x0b, 0x81, 0xfa, 0xfb,
  0x10, 0xb3, 0x05, 0xf9, 0x58, 0xf1, 0x24, 0xde, 0xf0, 0xd6, 0xf3, 0x56,
  0x1d, 0x60, 0xc7, 0xf0, 0x04, 0xef, 0xae, 0xbb, 0x53, 0xd4, 0x10, 0x4d,
  0xc0, 0x81, 0xb0, 0x1e, 0x44, 0x3c, 0x8f, 0x45, 0xea, 0xf6, 0x8e, 0x4f,
  0x2e, 0x95, 0xf3, 0xf3, 0xd3, 0x72, 0xd1, 0xe3, 0xf8, 0x81, 0x3f, 0x18,
  0x9f, 0xf1, 0x4b, 0xe1, 0x64, 0xac, 0xfe, 0x46, 0xfc, 0x28, 0x5d, 0x42,
  0xfa, 0xd6, 0xca, 0x1f, 0xb8, 0x1b, 0x38, 0xea, 0x0f, 0xe4, 0xe3, 0x7f,
  0x17, 0xd9, 0x0f, 0xb4, 0xe5, 0xfd, 0xbf, 0x37, 0x01, 0xf6, 0x1c, 0xa1,
  0x52, 0xf1, 0xe8, 0x09, 0x17, 0x33, 0x0f, 0xe3, 0x47, 0xd5, 0x05, 0xd6,
  0x7e, 0x01, 0xcf, 0x7f, 0xe9, 0x10, 0x29, 0x2e, 0xb4, 0xc8, 0x28, 0x4b,
  0x03, 0x22, 0x0a, 0x38, 0x29, 0x11, 0xdd, 0xf3, 0x27, 0x8e, 0x14, 0x2c,
  0xfb, 0xfa, 0x94, 0xce, 0xea, 0xaa, 0x60, 0x17, 0xe4, 0x0a, 0xfe, 0xe2,
  0xe5, 0xe5, 0x07, 0x15, 0x5a, 0x3b, 0xd9, 0x09, 0x05, 0x0b, 0xc1, 0x12,
  0x14, 0xd7, 0x15, 0x24, 0xfe, 0x27, 0x5b, 0x42, 0x81, 0x19, 0xf6, 0xe0,
  0x17, 0x7f, 0x6d, 0x4f, 0x23, 0x66, 0x16, 0x9e, 0xd0, 0xb4, 0xcb, 0xaf,
  0xd6, 0x16, 0xdd, 0xdb, 0xe8, 0x84, 0xd5, 0x3a, 0x21, 0x0f, 0x0a, 0xc7,
  0xd5, 0x3c, 0x63, 0x12, 0x4b, 0x8b, 0xb2, 0x34, 0x1e, 0x7f, 0xfd, 0x55,
  0x3a, 0x05, 0xbd, 0xe9, 0xe8, 0xff, 0xd8, 0xb7, 0x46, 0x01, 0x34, 0x1f,
  0xec, 0xdb, 0xae, 0x96, 0xd1, 0xee, 0x26, 0x24, 0x1f, 0x1f, 0xa9, 0xd8,
  0x07, 0x24, 0xe5, 0x1d, 0x54, 0xe6, 0xd0, 0xdd, 0x7f, 0x51, 0xd7, 0xe2,
  0x14, 0x24, 0xfd, 0xf1, 0xf8, 0xf8, 0x19, 0xe6, 0x29, 0xd2, 0xfe, 0x04,
  0x3b, 0x2a, 0x07, 0xdb, 0xb7, 0xef, 0x1e, 0x0b, 0x3b, 0xbf, 0xbd, 0xe8,
  0x38, 0x84, 0x18, 0xf5, 0x21, 0x4e, 0x05, 0xcd, 0x22, 0xf8, 0x92, 0xf7,
  0xbf, 0xb0, 0xe1, 0x10, 0xea, 0xeb, 0x0b, 0x16, 0x40, 0x1d, 0xb0, 0x04,
  0xe4, 0x1b, 0x30, 0x2b, 0x45, 0xfb, 0x3e, 0x81, 0x31, 0xf7, 0xfb, 0xe3,
  0xe2, 0x60, 0x81, 0xe4, 0xae, 0x09, 0x03, 0xcb, 0x12, 0xed, 0xe7, 0x38,
  0xbc, 0x1c, 0x3b, 0xc2, 0x3d, 0x14, 0xb5, 0x18, 0xf1, 0xe6, 0x88, 0xa6,
  0x39, 0xe9, 0x11, 0xff, 0xda, 0x3b, 0x9d, 0xf7, 0x23, 0xed, 0xec, 0x21,
  0x52, 0x78, 0x04, 0xcb, 0x52, 0xe6, 0xe6, 0x81, 0x04, 0xa1, 0x53, 0xf8,
  0xeb, 0x57, 0x3e, 0x3c, 0x18, 0x9b, 0xaa, 0x2d, 0xbf, 0xfb, 0x04, 0x30,
  0x2b, 0x05, 0x08, 0x4e, 0x2a, 0x81, 0xe9, 0xe1, 0x5a, 0xd9, 0xe2, 0x18,
  0x4d, 0x04, 0xb1, 0x46, 0xb0, 0xa7, 0xd7, 0x1f, 0x7e, 0x1c, 0x17, 0xc9,
  0xd7, 0xfb, 0xf0, 0x25, 0xcb, 0xdc, 0x43, 0xde, 0x7f, 0x91, 0xf3, 0x23,
  0x30, 0x0a, 0xb8, 0xad, 0xab, 0x3c, 0xbb, 0x2d, 0xfc, 0xd6, 0xd7, 0xf0,
  0xd6, 0x16, 0x1f, 0xfe, 0x19, 0xd3, 0x34, 0xc4, 0x0b, 0x45, 0xde, 0x3e,
  0xe2, 0xd6, 0x17, 0xca, 0xf6, 0x27, 0x0c, 0xf8, 0xf6, 0xf7, 0xe7, 0xda,
  0x7f, 0x41, 0xf2, 0xc4, 0x14, 0xf6, 0x61, 0xe0, 0xeb, 0x21, 0x52, 0x27,
  0xce, 0x7b, 0x11, 0x4a, 0x64, 0xf6, 0xe3, 0xbf, 0xd4, 0x19, 0x2e, 0x10,
  0xda, 0x81, 0x91, 0xed, 0x5c, 0xee, 0xdc, 0x8b, 0xbb, 0x8d, 0xd2, 0xeb,
  0xf5, 0xd9, 0x34, 0x71, 0x1d, 0x1a, 0xb6, 0x61, 0xdf, 0x19, 0x48, 0xbc,
  0x15, 0x0a, 0xed, 0xfd, 0x14, 0xe1, 0xe7, 0xa8, 0xa8, 0x21, 0xfd, 0x02,
  0x1e, 0xe8, 0x1a, 0xde, 0x06, 0xa7, 0xea, 0x7f, 0x09, 0x19, 0x03, 0xe2,
  0x9c, 0x19, 0x3d, 0x17, 0x17, 0x09, 0x11, 0x23, 0x04, 0xe5, 0xe0, 0x29,
  0xcf, 0x1d, 0xea, 0x02, 0x05, 0xd4, 0xd3, 0x90, 0x13, 0x0a, 0x8e, 0x08,
  0x14, 0xcd, 0x98, 0xcd, 0x0c, 0x0f, 0xe8, 0x2e, 0x38, 0x02, 0xe7, 0xee,
  0x30, 0xd1, 0xbe, 0x11, 0xda, 0x30, 0x18, 0x16, 0x01, 0x0a, 0x81, 0x02,
  0x50, 0xd9, 0x2f, 0x33, 0x14, 0x6a, 0xe6, 0xea, 0x29, 0xda, 0xdd, 0xf9,
  0xcc, 0x8a, 0xae, 0xdd, 0xd7, 0xeb, 0xad, 0x23, 0x83, 0x15, 0x81, 0x2b,
  0xbe, 0xe1, 0xb2, 0xdd, 0x0c, 0x04, 0xe0, 0xd4, 0x40, 0xa0, 0xbe, 0x0e,
  0x27, 0xf4, 0xd5, 0x0a, 0xcc, 0xe3, 0x0f, 0x18, 0x01, 0x94, 0x0b, 0xf7,
  0xef, 0xcc, 0xc7, 0x13, 0x74, 0x03, 0xa2, 0xa9, 0x0b, 0xee, 0x74, 0x30,
  0x18, 0x08, 0x14, 0x81, 0xe8, 0x05, 0x05, 0xea, 0x5c, 0xd4, 0xf4, 0xd4,
  0x23, 0x29, 0xca, 0x12, 0x19, 0x0e, 0x0d, 0xee, 0x33, 0xb9, 0xef, 0xd1,
  0x1c, 0x12, 0x10, 0xf0, 0xd2, 0xfc, 0xbf, 0xef, 0x3b, 0x81, 0x39, 0xfc,
  0x8a, 0xbf, 0x24, 0xc9, 0x50, 0x0f, 0x0a, 0xc5, 0xc9, 0xf7, 0x42, 0x21,
  0x42, 0x24, 0xab, 0x51, 0x07, 0xee, 0x2f, 0x05, 0xdf, 0xe7, 0x63, 0x7f,
  0x03, 0xa1, 0x26, 0xed, 0x37, 0xa7, 0x5b, 0x2c, 0x7f, 0xee, 0x08, 0x05,
  0x15, 0xab, 0x19, 0xc4, 0x18, 0xcb, 0xe2, 0xcb, 0xfd, 0xd6, 0xee, 0x3d,
  0xef, 0xdd, 0x23, 0x16, 0x29, 0xf9, 0xe5, 0xe2, 0xe0, 0x28, 0xf0, 0x1a,
  0x0a, 0xef, 0xf8, 0xf8, 0x90, 0x51, 0xab, 0x24, 0x9f, 0xc4, 0x31, 0x45,
  0x15, 0x67, 0x81, 0xf3, 0x19, 0x28, 0xde, 0x44, 0x95, 0xbc, 0xe8, 0x3c,
  0xd2, 0x52, 0x04, 0x7f, 0xd3, 0x18, 0xe8, 0x19, 0xf0, 0x53, 0x22, 0x16,
  0xea, 0x15, 0x9a, 0x7f, 0xf3, 0x28, 0xfb, 0xcc, 0x23, 0x01, 0x02, 0xf9,
  0x1c, 0x32, 0x64, 0xed, 0xcc, 0xe9, 0x51, 0x02, 0xbe, 0xf9, 0x26, 0x10,
  0x1a, 0xa2, 0x0b, 0x10, 0xfa, 0xf5, 0x14, 0x32, 0xa4, 0x03, 0xbb, 0xfa,
  0xcc, 0x81, 0x1e, 0x69, 0xe1, 0x0e, 0x28, 0x13, 0x81, 0x1e, 0x3e, 0xf5,
  0xf1, 0x5e, 0xaf, 0xd9, 0x83, 0x1e, 0xbe, 0x00, 0x18, 0xce, 0x2e, 0xdf,
  0xe6, 0x4d, 0xe9, 0x1d, 0x49, 0x7f, 0x29, 0xd2, 0x27, 0xd6, 0x07, 0x13,
  0xbd, 0xe6, 0x23, 0xda, 0xea, 0xca, 0x3e, 0x0f, 0xf3, 0x33, 0x04, 0x44,
  0x0a, 0xfd, 0x1a, 0xec, 0xbd, 0xda, 0x12, 0x47, 0x32, 0x26, 0xbf, 0xdf,
  0x2b, 0x81, 0x52, 0xe6, 0xfd, 0x17, 0x39, 0x40, 0xfd, 0xfc, 0x29, 0x57,
  0x2a, 0xe4, 0xaa, 0x00, 0x04, 0x1c, 0x39, 0xb5, 0x9d, 0xde, 0x22, 0xda,
  0xf1, 0x38, 0x00, 0xed, 0x16, 0xbe, 0xd7, 0x3d, 0xf7, 0x53, 0xf6, 0x3e,
  0x08, 0xeb, 0x14, 0x34, 0x44, 0x0e, 0x9e, 0x14, 0x67, 0xdc, 0x08, 0x34,
  0xe5, 0xf6, 0x7f, 0xb6, 0xea, 0x56, 0xf6, 0xe9, 0x27, 0xfe, 0xd6, 0xfa,
  0xe1, 0xdc, 0xec, 0x28, 0x0a, 0x1b, 0xe7, 0x12, 0x65, 0xd4, 0xeb, 0xff,
  0x37, 0x61, 0xc0, 0x9a, 0xe9, 0xcd, 0xf6, 0xd1, 0xb9, 0x67, 0x81, 0xab,
  0x5d, 0xc1, 0x14, 0xb6, 0xca, 0x9b, 0x3c, 0xc9, 0x36, 0xdb, 0x53, 0x2d,
  0x34, 0x8c, 0x49, 0x8c, 0x20, 0x31, 0x8f, 0x12, 0xd7, 0x09, 0xea, 0x33,
  0xc3, 0xd0, 0x1c, 0x72, 0x24, 0xb2, 0x7f, 0x0c, 0x65, 0x13, 0x52, 0xc6,
  0xa8, 0x28, 0xd8, 0x33, 0x2d, 0xf3, 0xc5, 0x11, 0x54, 0xf2, 0xf4, 0xac,
  0xe7, 0x8e, 0xcd, 0x16, 0x93, 0xa8, 0x9e, 0x9d, 0xf1, 0xdd, 0xe9, 0x1e,
  0x16, 0x26, 0xca, 0x20, 0xea, 0xcd, 0xe6, 0xfd, 0x81, 0xfc, 0xfa, 0xfe,
  0x7d, 0xf2, 0xe6, 0xe0, 0x0c, 0x15, 0xef, 0x0b, 0xc0, 0x04, 0x11, 0x41,
  0xc6, 0x2a, 0x96, 0x7f, 0x3b, 0x0f, 0x54, 0x06, 0x3d, 0x26, 0xd0, 0xe9,
  0xe9, 0xd3, 0x2f, 0x50, 0x3f, 0xe5, 0xcc, 0xd1, 0xb2, 0x1a, 0x13, 0x48,
  0xfe, 0x01, 0xe8, 0x38, 0xdf, 0x3c, 0xff, 0x2d, 0x7f, 0x2e, 0xda, 0x93,
  0x22, 0xf4, 0x45, 0xdd, 0x41, 0x2d, 0x24, 0x4a, 0xf1, 0xea, 0x44, 0x22,
  0xc1, 0x0c, 0xe3, 0xf5, 0xdb, 0x08, 0x63, 0x4c, 0xe0, 0xff, 0x52, 0xb2,
  0x5c, 0xe0, 0x02, 0xfd, 0x32, 0xe5, 0xeb, 0xf4, 0x04, 0x2d, 0xf7, 0xc7,
  0x14, 0x28, 0x26, 0x2e, 0x06, 0x02, 0xf9, 0x23, 0x1d, 0xb3, 0xb8, 0x14,
  0xd0, 0x10, 0x81, 0xe4, 0xff, 0xb2, 0xf9, 0xf2, 0x60, 0xf5, 0x1e, 0x1c,
  0xec, 0xfd, 0xa7, 0xc7, 0x1c, 0xb7, 0x9e, 0xda, 0x1a, 0x13, 0xb3, 0x15,
  0x63, 0x9c, 0x12, 0x08, 0x4a, 0xef, 0x7f, 0x3c, 0x64, 0x36, 0xc5, 0xe5,
  0x2c, 0xf3, 0xfd, 0x1b, 0xb9, 0x01, 0x81, 0xf8, 0x41, 0x1b, 0xed, 0xd7,
  0xc6, 0x63, 0xe9, 0xd8, 0x05, 0x0a, 0x38, 0xbf, 0xef, 0x04, 0x68, 0x3c,
  0x15, 0x19, 0x43, 0xbe, 0x23, 0x37, 0x41, 0x2c, 0xf9, 0xd2, 0x11, 0xd8,
  0x5a, 0x2e, 0x0b, 0xf6, 0xd2, 0x89, 0xd3, 0xc4, 0xe2, 0x2e, 0x27, 0x14,
  0x48, 0x47, 0xa3, 0x7f, 0x0b, 0x93, 0xe0, 0xd4, 0xdd, 0x4c, 0x11, 0x58,
  0xf4, 0xdb, 0xe9, 0x0a, 0xc2, 0xeb, 0x14, 0x7f, 0x47, 0xe0, 0xff, 0xfe,
  0xf2, 0x6e, 0x20, 0xfa, 0x17, 0x0b, 0xeb, 0x13, 0xf1, 0x2d, 0x2c, 0xc9,
  0x9b, 0x1f, 0x4d, 0xc9, 0x19, 0xfe, 0x21, 0x04, 0x31, 0x2e, 0xd3, 0xed,
  0x8f, 0x4b, 0xd9, 0x20, 0xc2, 0xcf, 0x1e, 0xac, 0x15, 0x2e, 0x06, 0xe1,
  0xfb, 0x47, 0xd0, 0x1f, 0x7f, 0xf5, 0x26, 0xed, 0xdf, 0x33, 0xd4, 0x2b,
  0xf7, 0x61, 0x8b, 0x48, 0x3b, 0x41, 0x20, 0x3f, 0x44, 0xb4, 0x31, 0xde,
  0xd0, 0x57, 0x01, 0x3c, 0xc9, 0xcc, 0xfd, 0xc6, 0xe7, 0x81, 0xd3, 0xd9,
  0xcc, 0x48, 0x1b, 0xa6, 0xeb, 0xbb, 0x4b, 0x22, 0xd5, 0x28, 0xef, 0x39,
  0x0d, 0xe2, 0xcf, 0xa3, 0x49, 0x01, 0x3c, 0xd8, 0x7d, 0x3f, 0xe0, 0xce,
  0x0e, 0xba, 0x33, 0xc2, 0xae, 0x81, 0xab, 0x53, 0x5e, 0xc9, 0xdb, 0x5e,
  0x15, 0xbc, 0xdd, 0xc7, 0x06, 0x04, 0x2e, 0xcc, 0xf0, 0x09, 0xed, 0x05,
  0xcb, 0xcb, 0x40, 0x17, 0xaf, 0xf2, 0xdb, 0x33, 0x36, 0x05, 0x55, 0x26,
  0x07, 0x53, 0x75, 0xf5, 0x30, 0xb7, 0xfb, 0xbb, 0xe5, 0x72, 0x17, 0x2b,
  0x0b, 0xe5, 0xef, 0x25, 0xd6, 0x7f, 0x10, 0x60, 0x2a, 0xc2, 0x1b, 0x66,
  0xfe, 0x2f, 0xd3, 0x00, 0xe9, 0x44, 0xfc, 0xd2, 0xc4, 0x56, 0x36, 0xfe,
  0xee, 0x81, 0xd6, 0xc4, 0xfc, 0x2d, 0x29, 0x20, 0x47, 0xa7, 0xac, 0xf6,
  0x28, 0xcf, 0x53, 0x18, 0xea, 0x1c, 0xe6, 0xa9, 0x7d, 0x2c, 0x52, 0xdd,
  0xc0, 0xe5, 0x81, 0xbd, 0x22, 0x9d, 0xe7, 0xe7, 0xbc, 0x31, 0x47, 0xe1,
  0xdc, 0x1c, 0x2c, 0xcf, 0xfb, 0x1a, 0xd8, 0xbf, 0x86, 0xea, 0x20, 0x2c,
  0xb5, 0x2e, 0x11, 0xa9, 0xc9, 0x46, 0xcd, 0x73, 0xb5, 0x48, 0x96, 0x4a,
  0x4f, 0x51, 0xf0, 0xde, 0x81, 0xd9, 0x30, 0x18, 0xa7, 0x11, 0xfd, 0x28,
  0xdb, 0x1e, 0xe2, 0xda, 0xb8, 0x35, 0x29, 0xec, 0xcb, 0xe7, 0x1c, 0xe2,
  0xd9, 0x5f, 0x6e, 0x23, 0x05, 0x8a, 0x02, 0xba, 0x7f, 0x3e, 0xc0, 0x7c,
  0xbd, 0x44, 0x1c, 0xd5, 0xe3, 0xea, 0x10, 0xcd, 0x07, 0xd4, 0x3f, 0x66,
  0x5d, 0xde, 0xea, 0xa2, 0xb5, 0x1e, 0x53, 0x0f, 0xe6, 0xde, 0x3e, 0x72,
  0x0f, 0x94, 0x1a, 0x0a, 0x03, 0x7f, 0xd6, 0xed, 0x18, 0xee, 0xd3, 0xa1,
  0xdd, 0xe4, 0x41, 0x18, 0xf7, 0x09, 0x2c, 0xa4, 0xb0, 0x3f, 0x3d, 0x44,
  0x05, 0x01, 0xdb, 0x62, 0x0e, 0x08, 0x4c, 0x78, 0x0f, 0xf4, 0xda, 0xfe,
  0x64, 0x03, 0xf0, 0x33, 0xd4, 0xa7, 0xe7, 0x36, 0xf5, 0xc8, 0xf5, 0xf9,
  0x11, 0x7f, 0x06, 0xe3, 0x1f, 0x26, 0xcd, 0xe1, 0xe6, 0xd8, 0x1b, 0x05,
  0x30, 0xd2, 0xba, 0x33, 0xfc, 0x07, 0x41, 0x19, 0x18, 0xbb, 0x3d, 0xc8,
  0xf4, 0xf6, 0x2d, 0x59, 0x03, 0x1b, 0x10, 0xd6, 0x02, 0x37, 0x0f, 0xf6,
  0x4b, 0x81, 0x14, 0x01, 0x13, 0xe8, 0x3a, 0xd8, 0xe2, 0x06, 0xd5, 0xd8,
  0xff, 0x23, 0xf3, 0x33, 0xed, 0x03, 0x02, 0xfd, 0xe6, 0x16, 0xdf, 0x3d,
  0x42, 0xc7, 0xef, 0x81, 0xd6, 0xf9, 0x10, 0xc8, 0x1a, 0x11, 0xdb, 0xf3,
  0x53, 0x43, 0x86, 0xf4, 0x42, 0x0e, 0xd1, 0x16, 0x35, 0x50, 0x63, 0x0b,
  0x9b, 0xc7, 0xea, 0x64, 0x81, 0xea, 0xc2, 0xb2, 0x42, 0xf6, 0x0a, 0x7a,
  0x27, 0x35, 0x1b, 0x21, 0xfe, 0xef, 0x31, 0x19, 0x0e, 0x8e, 0x1a, 0xfd,
  0x24, 0x0e, 0x22, 0xe5, 0x44, 0x25, 0x12, 0xb8, 0x02, 0x06, 0xe9, 0x1c,
  0x91, 0x33, 0x27, 0x6a, 0x1a, 0xed, 0x81, 0x54, 0xeb, 0x07, 0xec, 0x2e,
  0x52, 0xa3, 0x10, 0x01, 0x3f, 0x1c, 0x06, 0xbb, 0x0f, 0x37, 0x3c, 0xef,
  0x0d, 0xab, 0xbe, 0x48, 0xbb, 0xc7, 0xe2, 0xfb, 0x4d, 0x0c, 0x05, 0x0c,
  0x42, 0x81, 0x12, 0xf6, 0x1b, 0x3a, 0x5d, 0x09, 0x14, 0x8c, 0xee, 0x0b,
  0xd8, 0xeb, 0x39, 0x37, 0x05, 0xe8, 0x1f, 0x0b, 0x32, 0x23, 0x25, 0x54,
  0x06, 0x42, 0xc3, 0xff, 0x33, 0x52, 0x16, 0x8d, 0xc3, 0x31, 0x7f, 0x01,
  0x02, 0xec, 0xd2, 0xeb, 0x00, 0x5d, 0xfe, 0xb5, 0x15, 0xd7, 0x0e, 0x9b,
  0xf4, 0xef, 0xf4, 0xd8, 0x94, 0xee, 0xe5, 0xd7, 0xfd, 0x81, 0xb4, 0xaa,
  0x15, 0x21, 0xd9, 0x44, 0x0a, 0xe8, 0xf0, 0x21, 0xbc, 0x11, 0xa4, 0x3a,
  0x15, 0xe0, 0x39, 0xbb, 0xc8, 0x81, 0x3d, 0x4b, 0xc0, 0x17, 0x18, 0xd7,
  0x0e, 0x15, 0x13, 0xcc, 0xdc, 0x65, 0xb1, 0xc1, 0x3b, 0x5b, 0x02, 0x3c,
  0x2a, 0xc3, 0xe4, 0x17, 0xce, 0x15, 0xc7, 0x9d, 0xb2, 0x29, 0x0d, 0x4c,
  0x1e, 0xcd, 0xbd, 0x04, 0x10, 0x5e, 0x91, 0x99, 0x96, 0x13, 0x68, 0x38,
  0xa6, 0x49, 0x39, 0x30, 0x2c, 0x99, 0x39, 0xf9, 0x28, 0x20, 0xae, 0x48,
  0xf1, 0x7f, 0x33, 0x4d, 0xc0, 0xcd, 0x99, 0xee, 0x0a, 0xeb, 0x11, 0xc6,
  0x06, 0x17, 0x26, 0x87, 0xc8, 0x1d, 0xd8, 0x0a, 0xd8, 0xc3, 0xe5, 0x7f,
  0x35, 0xfe, 0xae, 0x3d, 0xff, 0xdd, 0x0e, 0x0b, 0x06, 0xfe, 0xd9, 0xe6,
  0x27, 0xf8, 0x24, 0xeb, 0x11, 0xa0, 0x74, 0x1a, 0x7f, 0x10, 0xc1, 0xd7,
  0xbe, 0xac, 0xde, 0xe5, 0xd6, 0xa7, 0x51, 0x31, 0xe3, 0xed, 0xff, 0x26,
  0xd4, 0x99, 0xaa, 0x0e, 0xd6, 0xea, 0x0e, 0x09, 0x2e, 0x05, 0xee, 0x17,
  0xe5, 0xfb, 0x2c, 0x26, 0xd8, 0xa5, 0xad, 0x00, 0x53, 0x6b, 0xe5, 0xee,
  0xc4, 0xa8, 0x0a, 0x30, 0x81, 0x26, 0x20, 0x52, 0x45, 0xc4, 0xd0, 0x44,
  0x18, 0xfa, 0xae, 0xfc, 0xf2, 0x22, 0x98, 0x20, 0xf0, 0xe5, 0x29, 0xed,
  0x03, 0x77, 0xf3, 0xbd, 0xf0, 0x0b, 0xec, 0x7f, 0xd8, 0x33, 0xdf, 0x29,
  0x63, 0x51, 0xd5, 0x14, 0x1e, 0xcb, 0xd2, 0xf0, 0x01, 0x45, 0x4b, 0x3b,
  0x55, 0x29, 0x90, 0x02, 0x2d, 0x20, 0xf6, 0x19, 0xf2, 0xe1, 0xb7, 0x3c,
  0x5e, 0xfe, 0x0e, 0xf7, 0x26, 0x1c, 0xfc, 0xd4, 0xcb, 0xd6, 0x32, 0x0b,
  0xb0, 0xc8, 0x2d, 0x21, 0x1f, 0xeb, 0x81, 0xce, 0xe0, 0xf5, 0x51, 0xce,
  0xce, 0x20, 0x81, 0xe1, 0x21, 0x1b, 0xcb, 0xa8, 0x77, 0x5d, 0xe1, 0x06,
  0x0d, 0xda, 0x16, 0xfb, 0x9e, 0xbf, 0xe5, 0xe1, 0xdc, 0x50, 0xf7, 0x09,
  0xb6, 0xc6, 0x08, 0xb4, 0xa0, 0x0e, 0x3e, 0xff, 0xe7, 0x3c, 0xe4, 0x37,
  0x5a, 0x2f, 0x9f, 0xaa, 0x18, 0xa8, 0xd0, 0x2b, 0x92, 0x0a, 0x95, 0xd3,
  0xff, 0xf7, 0xf5, 0x5a, 0xdd, 0x96, 0xf0, 0xff, 0x0a, 0x12, 0x09, 0xa3,
  0x36, 0xc1, 0xb3, 0x81, 0xd2, 0xd9, 0xd7, 0xf9, 0x27, 0x21, 0x81, 0xcd,
  0xc2, 0xdc, 0xe9, 0x4a, 0xef, 0x9f, 0x20, 0x25, 0xef, 0xfb, 0x71, 0x2a,
  0x1c, 0xef, 0xfb, 0xe6, 0x95, 0x2b, 0xd0, 0x24, 0x0d, 0x11, 0x17, 0xf1,
  0x40, 0x25, 0x36, 0xba, 0x04, 0xa5, 0xfb, 0x4d, 0xcf, 0x16, 0xf4, 0xdf,
  0xf2, 0x3a, 0x42, 0x9b, 0x8d, 0xc1, 0x2a, 0x2c, 0xab, 0x7f, 0x2c, 0x07,
  0x60, 0x07, 0x05, 0x20, 0xe6, 0xbb, 0x69, 0x71, 0xbc, 0x15, 0x1a, 0xce,
  0xc3, 0x36, 0xdd, 0x49, 0xdb, 0xd0, 0xd8, 0x33, 0xb2, 0x4c, 0x81, 0x68,
  0x35, 0x31, 0x00, 0x64, 0xc7, 0x07, 0x2d, 0xcf, 0xd3, 0xcc, 0x26, 0x50,
  0xea, 0x8e, 0xe9, 0x1e, 0xb9, 0xc8, 0xbe, 0x86, 0x27, 0x23, 0xd9, 0xb7,
  0xe0, 0xca, 0xb2, 0xb2, 0xc1, 0xb5, 0xc7, 0x49, 0xf0, 0x05, 0x0f, 0xc4,
  0x3a, 0xdf, 0xef, 0xc4, 0x42, 0xfb, 0x06, 0x7f, 0x40, 0xf0, 0x12, 0x11,
  0xdb, 0xd2, 0x60, 0xe2, 0x12, 0x43, 0x0d, 0xed, 0xcc, 0xac, 0x03, 0x4d,
  0xab, 0x02, 0x81, 0xf0, 0x2a, 0x32, 0xa6, 0x22, 0x44, 0x25, 0xf4, 0xb9,
  0xfa, 0x08, 0x15, 0xfb, 0x42, 0x17, 0xb8, 0x25, 0x1e, 0xe3, 0xef, 0x2b,
  0x36, 0x1c, 0xf9, 0x82, 0xee, 0xb5, 0xd1, 0x05, 0x05, 0xf0, 0xea, 0x46,
  0xd0, 0xf0, 0xec, 0x11, 0x00, 0x2a, 0xdd, 0xfd, 0xae, 0x12, 0x1a, 0x02,
  0x0f, 0x0b, 0x81, 0xef, 0xf4, 0xe1, 0xe0, 0x4b, 0xd9, 0x81, 0xd6, 0x30,
  0x2f, 0x22, 0xbc, 0xf7, 0x40, 0xf6, 0x0b, 0xe9, 0xc9, 0xca, 0x0d, 0x11,
  0x44, 0x33, 0x12, 0x53, 0xe8, 0xae, 0x1a, 0xd6, 0xe3, 0xac, 0x4b, 0x09,
  0x0b, 0xf0, 0x58, 0xd4, 0xd6, 0x7f, 0x1b, 0xb1, 0x06, 0xc8, 0xd1, 0x32,
  0x92, 0xab, 0xa9, 0x2c, 0x4f, 0x17, 0x48, 0xe2, 0x2f, 0xce, 0xbf, 0x82,
  0xe3, 0x49, 0x32, 0x7b, 0x5d, 0xd9, 0x1a, 0xc3, 0xf8, 0xba, 0x26, 0xc9,
  0x0c, 0x45, 0xfc, 0x81, 0x01, 0xc9, 0xa0, 0xc9, 0xce, 0xdc, 0x0e, 0xe7,
  0xd5, 0x10, 0xad, 0xed, 0xf2, 0x33, 0xcd, 0xca, 0x12, 0x21, 0x32, 0x09,
  0x22, 0xe5, 0x07, 0xb0, 0x35, 0x1d, 0x5c, 0xf9, 0x4f, 0x52, 0x1a, 0xf3,
  0x00, 0x42, 0xba, 0xc1, 0x88, 0xbe, 0x15, 0x68, 0x27, 0xbc, 0xf3, 0x7f,
  0x32, 0xde, 0xdd, 0x29, 0x18, 0x41, 0x21, 0x11, 0xe0, 0xd2, 0x97, 0xe8,
  0x51, 0xe0, 0x19, 0xdf, 0xfd, 0x22, 0xe0, 0x15, 0x62, 0x1b, 0xf4, 0xb9,
  0x2b, 0xeb, 0xf3, 0xfa, 0x16, 0x08, 0xed, 0x6e, 0x11, 0x7f, 0x0c, 0xf2,
  0xe0, 0xe5, 0xf0, 0xd4, 0x1d, 0xe4, 0x00, 0xf5, 0xf4, 0xcf, 0x29, 0xe8,
  0x08, 0x04, 0x1b, 0xfd, 0xca, 0x00, 0x13, 0xd5, 0xa8, 0xd0, 0x81, 0xe2,
  0x2d, 0x38, 0x14, 0x0b, 0x13, 0x99, 0xf8, 0x52, 0xd5, 0x44, 0x36, 0x31,
  0x6c, 0x2c, 0xb8, 0x1c, 0x58, 0xa7, 0xde, 0xc9, 0x46, 0xb7, 0xe2, 0xc1,
  0x06, 0xe0, 0x1d, 0xa9, 0xa9, 0xf3, 0xce, 0x1e, 0x11, 0x10, 0xd2, 0x24,
  0x2d, 0xc8, 0x1b, 0x81, 0xfa, 0x44, 0x84, 0x2c, 0x14, 0x0a, 0xd0, 0xc9,
  0xd4, 0x4b, 0xcd, 0xd8, 0x13, 0xc0, 0xef, 0x1f, 0x0f, 0x5d, 0x36, 0xb8,
  0x7a, 0x06, 0x1c, 0xd4, 0xff, 0xa0, 0xf5, 0x60, 0x81, 0x3a, 0x27, 0xc1,
  0x0a, 0x51, 0x18, 0x96, 0xe4, 0x2e, 0x37, 0x1f, 0xf4, 0xff, 0x7f, 0x23,
  0x3b, 0x18, 0xcf, 0xe0, 0xff, 0xe7, 0x00, 0x1b, 0x2a, 0xb9, 0xc8, 0x2a,
  0x2c, 0xdf, 0xcd, 0x05, 0xd2, 0x8f, 0x0f, 0xef, 0xdf, 0xfe, 0x3d, 0x69,
  0x26, 0x3d, 0xd9, 0x2b, 0xd5, 0xd6, 0xde, 0x07, 0x2c, 0xe2, 0xe7, 0xf6,
  0x58, 0x1f, 0xda, 0x30, 0xf5, 0xcf, 0x17, 0xef, 0xc0, 0xbf, 0xf6, 0x28,
  0xee, 0x23, 0x7f, 0x6e, 0xfe, 0xc8, 0xa5, 0xc2, 0x12, 0x3a, 0x29, 0x56,
  0xf8, 0xeb, 0x22, 0x13, 0xb3, 0x24, 0x08, 0x93, 0xb8, 0xd2, 0x1f, 0xee,
  0xc1, 0xf4, 0xd6, 0xfc, 0x11, 0x03, 0xca, 0x15, 0x07, 0xe2, 0xd8, 0xdb,
  0x1c, 0x74, 0x1a, 0x7f, 0x31, 0x05, 0xdb, 0xe6, 0x7b, 0xf1, 0x63, 0xb0,
  0x70, 0x5b, 0xf4, 0x86, 0xe5, 0x2d, 0xd3, 0x92, 0x25, 0xaa, 0xf9, 0x7f,
  0xc9, 0x7c, 0xa0, 0x3f, 0x7e, 0x06, 0x59, 0xa1, 0xd1, 0x2c, 0xe6, 0x2c,
  0xff, 0x0d, 0x18, 0xea, 0xfb, 0xbe, 0x1e, 0x14, 0x1f, 0x7c, 0x8f, 0x1a,
  0xc6, 0xbd, 0x81, 0xc3, 0x01, 0x51, 0xb9, 0xf1, 0x56, 0x4e, 0xf4, 0x1f,
  0x1a, 0x0c, 0xed, 0xe2, 0x07, 0x0d, 0x15, 0x10, 0x2c, 0xad, 0xb4, 0x1d,
  0x15, 0xee, 0xf6, 0xda, 0x4f, 0x23, 0xfb, 0xfb, 0x24, 0xc5, 0x15, 0x04,
  0xd7, 0xe8, 0x12, 0xd2, 0xbd, 0x6c, 0xae, 0xe8, 0xf1, 0xca, 0x15, 0x26,
  0x17, 0x42, 0x59, 0x7f, 0x0b, 0xb6, 0x03, 0x13, 0xad, 0x1a, 0x34, 0x13,
  0x46, 0xda, 0x54, 0x4c, 0x5e, 0x00, 0x12, 0x20, 0xc6, 0x0c, 0xe6, 0x0b,
  0x1c, 0x67, 0x3f, 0xf4, 0x0b, 0x1f, 0xea, 0x41, 0xfa, 0x6e, 0x62, 0x81,
  0x1f, 0x46, 0x10, 0xa1, 0x61, 0xe5, 0x20, 0x20, 0x09, 0x40, 0x81, 0xa3,
  0x09, 0xd2, 0xf2, 0xc3, 0xe0, 0xca, 0xc2, 0x25, 0xe5, 0x51, 0x26, 0xf3,
  0xd7, 0xed, 0x15, 0xcf, 0x09, 0x1f, 0xf7, 0x0d, 0xe7, 0xf0, 0xc4, 0x23,
  0xf8, 0x07, 0xaf, 0x33, 0x26, 0xeb, 0x1a, 0x11, 0xbf, 0x39, 0x0f, 0xdd,
  0x31, 0xe8, 0x24, 0xb7, 0xe5, 0x08, 0x2e, 0x26, 0xd4, 0x7f, 0xdb, 0xcb,
  0x0c, 0x1e, 0x9e, 0xf9, 0xe6, 0x0f, 0x30, 0x0f, 0x52, 0xe0, 0xff, 0xff,
  0x04, 0x00, 0x00, 0x00, 0x20, 0x00, 0x00, 0x00, 0xd2, 0xf7, 0x5d, 0xe2,
  0xbd, 0x3b, 0x50, 0x34, 0x9e, 0xbc, 0x2e, 0x0b, 0x8b, 0x2f, 0xc3, 0xb8,
  0x68, 0x5f, 0xdb, 0xd4, 0x02, 0xc8, 0x1f, 0x81, 0x47, 0x4d, 0x3a, 0xfe,
  0x47, 0x36, 0x85, 0x4f, 0x7e, 0xe0, 0xff, 0xff, 0x04, 0x00, 0x00, 0x00,
  0x04, 0x00, 0x00, 0x00, 0x20, 0x08, 0x00, 0x00, 0x8e, 0xe0, 0xff, 0xff,
  0x04, 0x00, 0x00, 0x00, 0x04, 0x00, 0x00, 0x00, 0x01, 0x00, 0x00, 0x00,
  0x9e, 0xe0, 0xff, 0xff, 0x04, 0x00, 0x00, 0x00, 0x0c, 0x00, 0x00, 0x00,
  0x0c, 0x00, 0x00, 0x00, 0x01, 0x00, 0x00, 0x00, 0x01, 0x00, 0x00, 0x00,
  0x2c, 0x39, 0xff, 0xff, 0x30, 0x39, 0xff, 0xff, 0x0f, 0x00, 0x00, 0x00,
  0x4d, 0x4c, 0x49, 0x52, 0x20, 0x43, 0x6f, 0x6e, 0x76, 0x65, 0x72, 0x74,
  0x65, 0x64, 0x2e, 0x00, 0x01, 0x00, 0x00, 0x00, 0x14, 0x00, 0x00, 0x00,
  0x00, 0x00, 0x0e, 0x00, 0x18, 0x00, 0x14, 0x00, 0x10, 0x00, 0x0c, 0x00,
  0x08, 0x00, 0x04, 0x00, 0x0e, 0x00, 0x00, 0x00, 0x14, 0x00, 0x00, 0x00,
  0x1c, 0x00, 0x00, 0x00, 0x80, 0x1f, 0x00, 0x00, 0x84, 0x1f, 0x00, 0x00,
  0x88, 0x1f, 0x00, 0x00, 0x04, 0x00, 0x00, 0x00, 0x6d, 0x61, 0x69, 0x6e,
  0x00, 0x00, 0x00, 0x00, 0xa6, 0x00, 0x00, 0x00, 0x44, 0x1f, 0x00, 0x00,
  0xd0, 0x1e, 0x00, 0x00, 0x88, 0x1e, 0x00, 0x00, 0x44, 0x1e, 0x00, 0x00,
  0x20, 0x1e, 0x00, 0x00, 0xf0, 0x1d, 0x00, 0x00, 0xcc, 0x1d, 0x00, 0x00,
  0x98, 0x1d, 0x00, 0x00, 0x74, 0x1d, 0x00, 0x00, 0x40, 0x1d, 0x00, 0x00,
  0x08, 0x1d, 0x00, 0x00, 0xd0, 0x1c, 0x00, 0x00, 0x98, 0x1c, 0x00, 0x00,
  0x60, 0x1c, 0x00, 0x00, 0x28, 0x1c, 0x00, 0x00, 0xf0, 0x1b, 0x00, 0x00,
  0xb8, 0x1b, 0x00, 0x00, 0x80, 0x1b, 0x00, 0x00, 0x48, 0x1b, 0x00, 0x00,
  0x14, 0x1b, 0x00, 0x00, 0xe0, 0x1a, 0x00, 0x00, 0x9c, 0x1a, 0x00, 0x00,
  0x78, 0x1a, 0x00, 0x00, 0x54, 0x1a, 0x00, 0x00, 0x20, 0x1a, 0x00, 0x00,
  0xfc, 0x19, 0x00, 0x00, 0xd8, 0x19, 0x00, 0x00, 0xa4, 0x19, 0x00, 0x00,
  0x70, 0x19, 0x00, 0x00, 0x4c, 0x19, 0x00, 0x00, 0x18, 0x19, 0x00, 0x00,
  0xe0, 0x18, 0x00, 0x00, 0xa8, 0x18, 0x00, 0x00, 0x74, 0x18, 0x00, 0x00,
  0x40, 0x18, 0x00, 0x00, 0xfc, 0x17, 0x00, 0x00, 0xd8, 0x17, 0x00, 0x00,
  0xb4, 0x17, 0x00, 0x00, 0x80, 0x17, 0x00, 0x00, 0x5c, 0x17, 0x00, 0x00,
  0x38, 0x17, 0x00, 0x00, 0x04, 0x17, 0x00, 0x00, 0xd0, 0x16, 0x00, 0x00,
  0xac, 0x16, 0x00, 0x00, 0x78, 0x16, 0x00, 0x00, 0x40, 0x16, 0x00, 0x00,
  0x08, 0x16, 0x00, 0x00, 0xd4, 0x15, 0x00, 0x00, 0xa0, 0x15, 0x00, 0x00,
  0x5c, 0x15, 0x00, 0x00, 0x38, 0x15, 0x00, 0x00, 0x14, 0x15, 0x00, 0x00,
  0xe0, 0x14, 0x00, 0x00, 0xbc, 0x14, 0x00, 0x00, 0x98, 0x14, 0x00, 0x00,
  0x64, 0x14, 0x00, 0x00, 0x30, 0x14, 0x00, 0x00, 0x0c, 0x14, 0x00, 0x00,
  0xd8, 0x13, 0x00, 0x00, 0xa0, 0x13, 0x00, 0x00, 0x68, 0x13, 0x00, 0x00,
  0x34, 0x13, 0x00, 0x00, 0x00, 0x13, 0x00, 0x00, 0xbc, 0x12, 0x00, 0x00,
  0x98, 0x12, 0x00, 0x00, 0x74, 0x12, 0x00, 0x00, 0x40, 0x12, 0x00, 0x00,
  0x1c, 0x12, 0x00, 0x00, 0xf8, 0x11, 0x00, 0x00, 0xc4, 0x11, 0x00, 0x00,
  0x90, 0x11, 0x00, 0x00, 0x6c, 0x11, 0x00, 0x00, 0x38, 0x11, 0x00, 0x00,
  0x00, 0x11, 0x00, 0x00, 0xcc, 0x10, 0x00, 0x00, 0x98, 0x10, 0x00, 0x00,
  0x54, 0x10, 0x00, 0x00, 0x30, 0x10, 0x00, 0x00, 0x0c, 0x10, 0x00, 0x00,
  0xd8, 0x0f, 0x00, 0x00, 0xb4, 0x0f, 0x00, 0x00, 0x90, 0x0f, 0x00, 0x00,
  0x5c, 0x0f, 0x00, 0x00, 0x28, 0x0f, 0x00, 0x00, 0x04, 0x0f, 0x00, 0x00,
  0xd0, 0x0e, 0x00, 0x00, 0x98, 0x0e, 0x00, 0x00, 0x64, 0x0e, 0x00, 0x00,
  0x30, 0x0e, 0x00, 0x00, 0xec, 0x0d, 0x00, 0x00, 0xc8, 0x0d, 0x00, 0x00,
  0xa4, 0x0d, 0x00, 0x00, 0x70, 0x0d, 0x00, 0x00, 0x4c, 0x0d, 0x00, 0x00,
  0x28, 0x0d, 0x00, 0x00, 0xf4, 0x0c, 0x00, 0x00, 0xc0, 0x0c, 0x00, 0x00,
  0x9c, 0x0c, 0x00, 0x00, 0x68, 0x0c, 0x00, 0x00, 0x30, 0x0c, 0x00, 0x00,
  0xfc, 0x0b, 0x00, 0x00, 0xc8, 0x0b, 0x00, 0x00, 0x84, 0x0b, 0x00, 0x00,
  0x60, 0x0b, 0x00, 0x00, 0x3c, 0x0b, 0x00, 0x00, 0x08, 0x0b, 0x00, 0x00,
  0xe4, 0x0a, 0x00, 0x00, 0xc0, 0x0a, 0x00, 0x00, 0x8c, 0x0a, 0x00, 0x00,
  0x58, 0x0a, 0x00, 0x00, 0x34, 0x0a, 0x00, 0x00, 0x00, 0x0a, 0x00, 0x00,
  0xc8, 0x09, 0x00, 0x00, 0x94, 0x09, 0x00, 0x00, 0x60, 0x09, 0x00, 0x00,
  0x1c, 0x09, 0x00, 0x00, 0xf8, 0x08, 0x00, 0x00, 0xd4, 0x08, 0x00, 0x00,
  0xa0, 0x08, 0x00, 0x00, 0x7c, 0x08, 0x00, 0x00, 0x58, 0x08, 0x00, 0x00,
  0x24, 0x08, 0x00, 0x00, 0xf0, 0x07, 0x00, 0x00, 0xcc, 0x07, 0x00, 0x00,
  0x98, 0x07, 0x00, 0x00, 0x60, 0x07, 0x00, 0x00, 0x2c, 0x07, 0x00, 0x00,
  0xf8, 0x06, 0x00, 0x00, 0xb4, 0x06, 0x00, 0x00, 0x90, 0x06, 0x00, 0x00,
  0x6c, 0x06, 0x00, 0x00, 0x38, 0x06, 0x00, 0x00, 0x14, 0x06, 0x00, 0x00,
  0xf0, 0x05, 0x00, 0x00, 0xbc, 0x05, 0x00, 0x00, 0x88, 0x05, 0x00, 0x00,
  0x64, 0x05, 0x00, 0x00, 0x30, 0x05, 0x00, 0x00, 0xf8, 0x04, 0x00, 0x00,
  0xc4, 0x04, 0x00, 0x00, 0x90, 0x04, 0x00, 0x00, 0x4c, 0x04, 0x00, 0x00,
  0x28, 0x04, 0x00, 0x00, 0x04, 0x04, 0x00, 0x00, 0xd0, 0x03, 0x00, 0x00,
  0xac, 0x03, 0x00, 0x00, 0x88, 0x03, 0x00, 0x00, 0x54, 0x03, 0x00, 0x00,
  0x20, 0x03, 0x00, 0x00, 0xfc, 0x02, 0x00, 0x00, 0xc8, 0x02, 0x00, 0x00,
  0x90, 0x02, 0x00, 0x00, 0x5c, 0x02, 0x00, 0x00, 0x28, 0x02, 0x00, 0x00,
  0xe4, 0x01, 0x00, 0x00, 0xc0, 0x01, 0x00, 0x00, 0x9c, 0x01, 0x00, 0x00,
  0x68, 0x01, 0x00, 0x00, 0x44, 0x01, 0x00, 0x00, 0x20, 0x01, 0x00, 0x00,
  0xec, 0x00, 0x00, 0x00, 0xb8, 0x00, 0x00, 0x00, 0x94, 0x00, 0x00, 0x00,
  0x60, 0x00, 0x00, 0x00, 0x28, 0x00, 0x00, 0x00, 0x04, 0x00, 0x00, 0x00,
  0x72, 0xe4, 0xff, 0xff, 0x0c, 0x00, 0x00, 0x00, 0x10, 0x00, 0x00, 0x00,
  0x08, 0x00, 0x00, 0x00, 0x01, 0x00, 0x00, 0x00, 0xdd, 0x00, 0x00, 0x00,
  0x01, 0x00, 0x00, 0x00, 0xdc, 0x00, 0x00, 0x00, 0xf2, 0xe3, 0xff, 0xff,
  0x14, 0x00, 0x00, 0x00, 0x00, 0x00, 0x00, 0x08, 0x10, 0x00, 0x00, 0x00,
  0x14, 0x00, 0x00, 0x00, 0x02, 0x00, 0x00, 0x00, 0x58, 0x3c, 0xff, 0xff,
  0x01, 0x00, 0x00, 0x00, 0xdc, 0x00, 0x00, 0x00, 0x03, 0x00, 0x00, 0x00,
  0xdb, 0x00, 0x00, 0x00, 0x04, 0x00, 0x00, 0x00, 0x03, 0x00, 0x00, 0x00,
  0x26, 0xe4, 0xff, 0xff, 0x14, 0x00, 0x00, 0x00, 0x00, 0x00, 0x00, 0x15,
  0x10, 0x00, 0x00, 0x00, 0x14, 0x00, 0x00, 0x00, 0x06, 0x00, 0x00, 0x00,
  0x8c, 0x3c, 0xff, 0xff, 0x01, 0x00, 0x00, 0x00, 0xdb, 0x00, 0x00, 0x00,
  0x02, 0x00, 0x00, 0x00, 0xd6, 0x00, 0x00, 0x00, 0xda, 0x00, 0x00, 0x00,
  0xf6, 0xe4, 0xff, 0xff, 0x0c, 0x00, 0x00, 0x00, 0x10, 0x00, 0x00, 0x00,
  0x05, 0x00, 0x00, 0x00, 0x01, 0x00, 0x00, 0x00, 0xda, 0x00, 0x00, 0x00,
  0x01, 0x00, 0x00, 0x00, 0xd9, 0x00, 0x00, 0x00, 0x76, 0xe4, 0xff, 0xff,
  0x14, 0x00, 0x00, 0x00, 0x00, 0x00, 0x00, 0x0b, 0x10, 0x00, 0x00, 0x00,
  0x14, 0x00, 0x00, 0x00, 0x07, 0x00, 0x00, 0x00, 0xdc, 0x3c, 0xff, 0xff,
  0x01, 0x00, 0x00, 0x00, 0xd9, 0x00, 0x00, 0x00, 0x02, 0x00, 0x00, 0x00,
  0xd5, 0x00, 0x00, 0x00, 0xd8, 0x00, 0x00, 0x00, 0xa6, 0xe4, 0xff, 0xff,
  0x14, 0x00, 0x00, 0x00, 0x00, 0x00, 0x00, 0x15, 0x10, 0x00, 0x00, 0x00,
  0x14, 0x00, 0x00, 0x00, 0x06, 0x00, 0x00, 0x00, 0x0c, 0x3d, 0xff, 0xff,
  0x01, 0x00, 0x00, 0x00, 0xd8, 0x00, 0x00, 0x00, 0x02, 0x00, 0x00, 0x00,
  0xd3, 0x00, 0x00, 0x00, 0xd7, 0x00, 0x00, 0x00, 0x76, 0xe5, 0xff, 0xff,
  0x0c, 0x00, 0x00, 0x00, 0x10, 0x00, 0x00, 0x00, 0x05, 0x00, 0x00, 0x00,
  0x01, 0x00, 0x00, 0x00, 0xd7, 0x00, 0x00, 0x00, 0x01, 0x00, 0x00, 0x00,
  0xd1, 0x00, 0x00, 0x00, 0x96, 0xe5, 0xff, 0xff, 0x0c, 0x00, 0x00, 0x00,
  0x10, 0x00, 0x00, 0x00, 0x04, 0x00, 0x00, 0x00, 0x01, 0x00, 0x00, 0x00,
  0xd6, 0x00, 0x00, 0x00, 0x01, 0x00, 0x00, 0x00, 0xd2, 0x00, 0x00, 0x00,
  0x16, 0xe5, 0xff, 0xff, 0x14, 0x00, 0x00, 0x00, 0x00, 0x00, 0x00, 0x15,
  0x10, 0x00, 0x00, 0x00, 0x14, 0x00, 0x00, 0x00, 0x06, 0x00, 0x00, 0x00,
  0x7c, 0x3d, 0xff, 0xff, 0x01, 0x00, 0x00, 0x00, 0xd5, 0x00, 0x00, 0x00,
  0x02, 0x00, 0x00, 0x00, 0xd4, 0x00, 0x00, 0x00, 0xc9, 0x00, 0x00, 0x00,
  0xe6, 0xe5, 0xff, 0xff, 0x0c, 0x00, 0x00, 0x00, 0x10, 0x00, 0x00, 0x00,
  0x04, 0x00, 0x00, 0x00, 0x01, 0x00, 0x00, 0x00, 0xd4, 0x00, 0x00, 0x00,
  0x01, 0x00, 0x00, 0x00, 0xd0, 0x00, 0x00, 0x00, 0x06, 0xe6, 0xff, 0xff,
  0x0c, 0x00, 0x00, 0x00, 0x10, 0x00, 0x00, 0x00, 0x04, 0x00, 0x00, 0x00,
  0x01, 0x00, 0x00, 0x00, 0xd3, 0x00, 0x00, 0x00, 0x01, 0x00, 0x00, 0x00,
  0xcf, 0x00, 0x00, 0x00, 0x86, 0xe5, 0xff, 0xff, 0x14, 0x00, 0x00, 0x00,
  0x00, 0x00, 0x00, 0x23, 0x14, 0x00, 0x00, 0x00, 0x24, 0x00, 0x00, 0x00,
  0x03, 0x00, 0x00, 0x00, 0x76, 0xe5, 0xff, 0xff, 0x04, 0x00, 0x00, 0x00,
  0x04, 0x00, 0x00, 0x00, 0xcf, 0x00, 0x00, 0x00, 0xd0, 0x00, 0x00, 0x00,
  0xd1, 0x00, 0x00, 0x00, 0xd2, 0x00, 0x00, 0x00, 0x02, 0x00, 0x00, 0x00,
  0x02, 0x00, 0x00, 0x00, 0xce, 0x00, 0x00, 0x00, 0xc6, 0xe5, 0xff, 0xff,
  0x14, 0x00, 0x00, 0x00, 0x00, 0x00, 0x00, 0x0b, 0x10, 0x00, 0x00, 0x00,
  0x14, 0x00, 0x00, 0x00, 0x07, 0x00, 0x00, 0x00, 0x2c, 0x3e, 0xff, 0xff,
  0x01, 0x00, 0x00, 0x00, 0xce, 0x00, 0x00, 0x00, 0x02, 0x00, 0x00, 0x00,
  0xcd, 0x00, 0x00, 0x00, 0x07, 0x00, 0x00, 0x00, 0xf6, 0xe5, 0xff, 0xff,
  0x14, 0x00, 0x00, 0x00, 0x00, 0x00, 0x00, 0x0b, 0x10, 0x00, 0x00, 0x00,
  0x14, 0x00, 0x00, 0x00, 0x07, 0x00, 0x00, 0x00, 0x5c, 0x3e, 0xff, 0xff,
  0x01, 0x00, 0x00, 0x00, 0xcd, 0x00, 0x00, 0x00, 0x02, 0x00, 0x00, 0x00,
  0x28, 0x00, 0x00, 0x00, 0xcc, 0x00, 0x00, 0x00, 0x26, 0xe6, 0xff, 0xff,
  0x14, 0x00, 0x00, 0x00, 0x00, 0x00, 0x00, 0x08, 0x10, 0x00, 0x00, 0x00,
  0x14, 0x00, 0x00, 0x00, 0x02, 0x00, 0x00, 0x00, 0x8c, 0x3e, 0xff, 0xff,
  0x01, 0x00, 0x00, 0x00, 0xcc, 0x00, 0x00, 0x00, 0x03, 0x00, 0x00, 0x00,
  0xcb, 0x00, 0x00, 0x00, 0x05, 0x00, 0x00, 0x00, 0xff, 0xff, 0xff, 0xff,
  0x5a, 0xe6, 0xff, 0xff, 0x14, 0x00, 0x00, 0x00, 0x00, 0x00, 0x00, 0x15,
  0x10, 0x00, 0x00, 0x00, 0x14, 0x00, 0x00, 0x00, 0x06, 0x00, 0x00, 0x00,
  0xc0, 0x3e, 0xff, 0xff, 0x01, 0x00, 0x00, 0x00, 0xcb, 0x00, 0x00, 0x00,
  0x02, 0x00, 0x00, 0x00, 0xc6, 0x00, 0x00, 0x00, 0xca, 0x00, 0x00, 0x00,
  0x2a, 0xe7, 0xff, 0xff, 0x0c, 0x00, 0x00, 0x00, 0x10, 0x00, 0x00, 0x00,
  0x05, 0x00, 0x00, 0x00, 0x01, 0x00, 0x00, 0x00, 0xca, 0x00, 0x00, 0x00,
  0x01, 0x00, 0x00, 0x00, 0xc9, 0x00, 0x00, 0x00, 0xaa, 0xe6, 0xff, 0xff,
  0x14, 0x00, 0x00, 0x00, 0x00, 0x00, 0x00, 0x0b, 0x10, 0x00, 0x00, 0x00,
  0x14, 0x00, 0x00, 0x00, 0x07, 0x00, 0x00, 0x00, 0x10, 0x3f, 0xff, 0xff,
  0x01, 0x00, 0x00, 0x00, 0xc9, 0x00, 0x00, 0x00, 0x02, 0x00, 0x00, 0x00,
  0xc5, 0x00, 0x00, 0x00, 0xc8, 0x00, 0x00, 0x00, 0xda, 0xe6, 0xff, 0xff,
  0x14, 0x00, 0x00, 0x00, 0x00, 0x00, 0x00, 0x15, 0x10, 0x00, 0x00, 0x00,
  0x14, 0x00, 0x00, 0x00, 0x06, 0x00, 0x00, 0x00, 0x40, 0x3f, 0xff, 0xff,
  0x01, 0x00, 0x00, 0x00, 0xc8, 0x00, 0x00, 0x00, 0x02, 0x00, 0x00, 0x00,
  0xc3, 0x00, 0x00, 0x00, 0xc7, 0x00, 0x00, 0x00, 0xaa, 0xe7, 0xff, 0xff,
  0x0c, 0x00, 0x00, 0x00, 0x10, 0x00, 0x00, 0x00, 0x05, 0x00, 0x00, 0x00,
  0x01, 0x00, 0x00, 0x00, 0xc7, 0x00, 0x00, 0x00, 0x01, 0x00, 0x00, 0x00,
  0xc1, 0x00, 0x00, 0x00, 0xca, 0xe7, 0xff, 0xff, 0x0c, 0x00, 0x00, 0x00,
  0x10, 0x00, 0x00, 0x00, 0x04, 0x00, 0x00, 0x00, 0x01, 0x00, 0x00, 0x00,
  0xc6, 0x00, 0x00, 0x00, 0x01, 0x00, 0x00, 0x00, 0xc2, 0x00, 0x00, 0x00,
  0x4a, 0xe7, 0xff, 0xff, 0x14, 0x00, 0x00, 0x00, 0x00, 0x00, 0x00, 0x15,
  0x10, 0x00, 0x00, 0x00, 0x14, 0x00, 0x00, 0x00, 0x06, 0x00, 0x00, 0x00,
  0xb0, 0x3f, 0xff, 0xff, 0x01, 0x00, 0x00, 0x00, 0xc5, 0x00, 0x00, 0x00,
  0x02, 0x00, 0x00, 0x00, 0xc4, 0x00, 0x00, 0x00, 0xb9, 0x00, 0x00, 0x00,
  0x1a, 0xe8, 0xff, 0xff, 0x0c, 0x00, 0x00, 0x00, 0x10, 0x00, 0x00, 0x00,
  0x04, 0x00, 0x00, 0x00, 0x01, 0x00, 0x00, 0x00, 0xc4, 0x00, 0x00, 0x00,
  0x01, 0x00, 0x00, 0x00, 0xc0, 0x00, 0x00, 0x00, 0x3a, 0xe8, 0xff, 0xff,
  0x0c, 0x00, 0x00, 0x00, 0x10, 0x00, 0x00, 0x00, 0x04, 0x00, 0x00, 0x00,
  0x01, 0x00, 0x00, 0x00, 0xc3, 0x00, 0x00, 0x00, 0x01, 0x00, 0x00, 0x00,
  0xbf, 0x00, 0x00, 0x00, 0xba, 0xe7, 0xff, 0xff, 0x14, 0x00, 0x00, 0x00,
  0x00, 0x00, 0x00, 0x23, 0x14, 0x00, 0x00, 0x00, 0x24, 0x00, 0x00, 0x00,
  0x03, 0x00, 0x00, 0x00, 0xaa, 0xe7, 0xff, 0xff, 0x04, 0x00, 0x00, 0x00,
  0x04, 0x00, 0x00, 0x00, 0xbf, 0x00, 0x00, 0x00, 0xc0, 0x00, 0x00, 0x00,
  0xc1, 0x00, 0x00, 0x00, 0xc2, 0x00, 0x00, 0x00, 0x02, 0x00, 0x00, 0x00,
  0x02, 0x00, 0x00, 0x00, 0xbe, 0x00, 0x00, 0x00, 0xfa, 0xe7, 0xff, 0xff,
  0x14, 0x00, 0x00, 0x00, 0x00, 0x00, 0x00, 0x0b, 0x10, 0x00, 0x00, 0x00,
  0x14, 0x00, 0x00, 0x00, 0x07, 0x00, 0x00, 0x00, 0x60, 0x40, 0xff, 0xff,
  0x01, 0x00, 0x00, 0x00, 0xbe, 0x00, 0x00, 0x00, 0x02, 0x00, 0x00, 0x00,
  0xbd, 0x00, 0x00, 0x00, 0x07, 0x00, 0x00, 0x00, 0x2a, 0xe8, 0xff, 0xff,
  0x14, 0x00, 0x00, 0x00, 0x00, 0x00, 0x00, 0x0b, 0x10, 0x00, 0x00, 0x00,
  0x14, 0x00, 0x00, 0x00, 0x07, 0x00, 0x00, 0x00, 0x90, 0x40, 0xff, 0xff,
  0x01, 0x00, 0x00, 0x00, 0xbd, 0x00, 0x00, 0x00, 0x02, 0x00, 0x00, 0x00,
  0x27, 0x00, 0x00, 0x00, 0xbc, 0x00, 0x00, 0x00, 0x5a, 0xe8, 0xff, 0xff,
  0x14, 0x00, 0x00, 0x00, 0x00, 0x00, 0x00, 0x08, 0x10, 0x00, 0x00, 0x00,
  0x14, 0x00, 0x00, 0x00, 0x02, 0x00, 0x00, 0x00, 0xc0, 0x40, 0xff, 0xff,
  0x01, 0x00, 0x00, 0x00, 0xbc, 0x00, 0x00, 0x00, 0x03, 0x00, 0x00, 0x00,
  0xbb, 0x00, 0x00, 0x00, 0x05, 0x00, 0x00, 0x00, 0xff, 0xff, 0xff, 0xff,
  0x8e, 0xe8, 0xff, 0xff, 0x14, 0x00, 0x00, 0x00, 0x00, 0x00, 0x00, 0x15,
  0x10, 0x00, 0x00, 0x00, 0x14, 0x00, 0x00, 0x00, 0x06, 0x00, 0x00, 0x00,
  0xf4, 0x40, 0xff, 0xff, 0x01, 0x00, 0x00, 0x00, 0xbb, 0x00, 0x00, 0x00,
  0x02, 0x00, 0x00, 0x00, 0xb6, 0x00, 0x00, 0x00, 0xba, 0x00, 0x00, 0x00,
  0x5e, 0xe9, 0xff, 0xff, 0x0c, 0x00, 0x00, 0x00, 0x10, 0x00, 0x00, 0x00,
  0x05, 0x00, 0x00, 0x00, 0x01, 0x00, 0x00, 0x00, 0xba, 0x00, 0x00, 0x00,
  0x01, 0x00, 0x00, 0x00, 0xb9, 0x00, 0x00, 0x00, 0xde, 0xe8, 0xff, 0xff,
  0x14, 0x00, 0x00, 0x00, 0x00, 0x00, 0x00, 0x0b, 0x10, 0x00, 0x00, 0x00,
  0x14, 0x00, 0x00, 0x00, 0x07, 0x00, 0x00, 0x00, 0x44, 0x41, 0xff, 0xff,
  0x01, 0x00, 0x00, 0x00, 0xb9, 0x00, 0x00, 0x00, 0x02, 0x00, 0x00, 0x00,
  0xb5, 0x00, 0x00, 0x00, 0xb8, 0x00, 0x00, 0x00, 0x0e, 0xe9, 0xff, 0xff,
  0x14, 0x00, 0x00, 0x00, 0x00, 0x00, 0x00, 0x15, 0x10, 0x00, 0x00, 0x00,
  0x14, 0x00, 0x00, 0x00, 0x06, 0x00, 0x00, 0x00, 0x74, 0x41, 0xff, 0xff,
  0x01, 0x00, 0x00, 0x00, 0xb8, 0x00, 0x00, 0x00, 0x02, 0x00, 0x00, 0x00,
  0xb3, 0x00, 0x00, 0x00, 0xb7, 0x00, 0x00, 0x00, 0xde, 0xe9, 0xff, 0xff,
  0x0c, 0x00, 0x00, 0x00, 0x10, 0x00, 0x00, 0x00, 0x05, 0x00, 0x00, 0x00,
  0x01, 0x00, 0x00, 0x00, 0xb7, 0x00, 0x00, 0x00, 0x01, 0x00, 0x00, 0x00,
  0xb1, 0x00, 0x00, 0x00, 0xfe, 0xe9, 0xff, 0xff, 0x0c, 0x00, 0x00, 0x00,
  0x10, 0x00, 0x00, 0x00, 0x04, 0x00, 0x00, 0x00, 0x01, 0x00, 0x00, 0x00,
  0xb6, 0x00, 0x00, 0x00, 0x01, 0x00, 0x00, 0x00, 0xb2, 0x00, 0x00, 0x00,
  0x7e, 0xe9, 0xff, 0xff, 0x14, 0x00, 0x00, 0x00, 0x00, 0x00, 0x00, 0x15,
  0x10, 0x00, 0x00, 0x00, 0x14, 0x00, 0x00, 0x00, 0x06, 0x00, 0x00, 0x00,
  0xe4, 0x41, 0xff, 0xff, 0x01, 0x00, 0x00, 0x00, 0xb5, 0x00, 0x00, 0x00,
  0x02, 0x00, 0x00, 0x00, 0xb4, 0x00, 0x00, 0x00, 0xa9, 0x00, 0x00, 0x00,
  0x4e, 0xea, 0xff, 0xff, 0x0c, 0x00, 0x00, 0x00, 0x10, 0x00, 0x00, 0x00,
  0x04, 0x00, 0x00, 0x00, 0x01, 0x00, 0x00, 0x00, 0xb4, 0x00, 0x00, 0x00,
  0x01, 0x00, 0x00, 0x00, 0xb0, 0x00, 0x00, 0x00, 0x6e, 0xea, 0xff, 0xff,
  0x0c, 0x00, 0x00, 0x00, 0x10, 0x00, 0x00, 0x00, 0x04, 0x00, 0x00, 0x00,
  0x01, 0x00, 0x00, 0x00, 0xb3, 0x00, 0x00, 0x00, 0x01, 0x00, 0x00, 0x00,
  0xaf, 0x00, 0x00, 0x00, 0xee, 0xe9, 0xff, 0xff, 0x14, 0x00, 0x00, 0x00,
  0x00, 0x00, 0x00, 0x23, 0x14, 0x00, 0x00, 0x00, 0x24, 0x00, 0x00, 0x00,
  0x03, 0x00, 0x00, 0x00, 0xde, 0xe9, 0xff, 0xff, 0x04, 0x00, 0x00, 0x00,
  0x04, 0x00, 0x00, 0x00, 0xaf, 0x00, 0x00, 0x00, 0xb0, 0x00, 0x00, 0x00,
  0xb1, 0x00, 0x00, 0x00, 0xb2, 0x00, 0x00, 0x00, 0x02, 0x00, 0x00, 0x00,
  0x02, 0x00, 0x00, 0x00, 0xae, 0x00, 0x00, 0x00, 0x2e, 0xea, 0xff, 0xff,
  0x14, 0x00, 0x00, 0x00, 0x00, 0x00, 0x00, 0x0b, 0x10, 0x00, 0x00, 0x00,
  0x14, 0x00, 0x00, 0x00, 0x07, 0x00, 0x00, 0x00, 0x94, 0x42, 0xff, 0xff,
  0x01, 0x00, 0x00, 0x00, 0xae, 0x00, 0x00, 0x00, 0x02, 0x00, 0x00, 0x00,
  0xad, 0x00, 0x00, 0x00, 0x07, 0x00, 0x00, 0x00, 0x5e, 0xea, 0xff, 0xff,
  0x14, 0x00, 0x00, 0x00, 0x00, 0x00, 0x00, 0x0b, 0x10, 0x00, 0x00, 0x00,
  0x14, 0x00, 0x00, 0x00, 0x07, 0x00, 0x00, 0x00, 0xc4, 0x42, 0xff, 0xff,
  0x01, 0x00, 0x00, 0x00, 0xad, 0x00, 0x00, 0x00, 0x02, 0x00, 0x00, 0x00,
  0x26, 0x00, 0x00, 0x00, 0xac, 0x00, 0x00, 0x00, 0x8e, 0xea, 0xff, 0xff,
  0x14, 0x00, 0x00, 0x00, 0x00, 0x00, 0x00, 0x08, 0x10, 0x00, 0x00, 0x00,
  0x14, 0x00, 0x00, 0x00, 0x02, 0x00, 0x00, 0x00, 0xf4, 0x42, 0xff, 0xff,
  0x01, 0x00, 0x00, 0x00, 0xac, 0x00, 0x00, 0x00, 0x03, 0x00, 0x00, 0x00,
  0xab, 0x00, 0x00, 0x00, 0x05, 0x00, 0x00, 0x00, 0xff, 0xff, 0xff, 0xff,
  0xc2, 0xea, 0xff, 0xff, 0x14, 0x00, 0x00, 0x00, 0x00, 0x00, 0x00, 0x15,
  0x10, 0x00, 0x00, 0x00, 0x14, 0x00, 0x00, 0x00, 0x06, 0x00, 0x00, 0x00,
  0x28, 0x43, 0xff, 0xff, 0x01, 0x00, 0x00, 0x00, 0xab, 0x00, 0x00, 0x00,
  0x02, 0x00, 0x00, 0x00, 0xa6, 0x00, 0x00, 0x00, 0xaa, 0x00, 0x00, 0x00,
  0x92, 0xeb, 0xff, 0xff, 0x0c, 0x00, 0x00, 0x00, 0x10, 0x00, 0x00, 0x00,
  0x05, 0x00, 0x00, 0x00, 0x01, 0x00, 0x00, 0x00, 0xaa, 0x00, 0x00, 0x00,
  0x01, 0x00, 0x00, 0x00, 0xa9, 0x00, 0x00, 0x00, 0x12, 0xeb, 0xff, 0xff,
  0x14, 0x00, 0x00, 0x00, 0x00, 0x00, 0x00, 0x0b, 0x10, 0x00, 0x00, 0x00,
  0x14, 0x00, 0x00, 0x00, 0x07, 0x00, 0x00, 0x00, 0x78, 0x43, 0xff, 0xff,
  0x01, 0x00, 0x00, 0x00, 0xa9, 0x00, 0x00, 0x00, 0x02, 0x00, 0x00, 0x00,
  0xa5, 0x00, 0x00, 0x00, 0xa8, 0x00, 0x00, 0x00, 0x42, 0xeb, 0xff, 0xff,
  0x14, 0x00, 0x00, 0x00, 0x00, 0x00, 0x00, 0x15, 0x10, 0x00, 0x00, 0x00,
  0x14, 0x00, 0x00, 0x00, 0x06, 0x00, 0x00, 0x00, 0xa8, 0x43, 0xff, 0xff,
  0x01, 0x00, 0x00, 0x00, 0xa8, 0x00, 0x00, 0x00, 0x02, 0x00, 0x00, 0x00,
  0xa3, 0x00, 0x00, 0x00, 0xa7, 0x00, 0x00, 0x00, 0x12, 0xec, 0xff, 0xff,
  0x0c, 0x00, 0x00, 0x00, 0x10, 0x00, 0x00, 0x00, 0x05, 0x00, 0x00, 0x00,
  0x01, 0x00, 0x00, 0x00, 0xa7, 0x00, 0x00, 0x00, 0x01, 0x00, 0x00, 0x00,
  0xa1, 0x00, 0x00, 0x00, 0x32, 0xec, 0xff, 0xff, 0x0c, 0x00, 0x00, 0x00,
  0x10, 0x00, 0x00, 0x00, 0x04, 0x00, 0x00, 0x00, 0x01, 0x00, 0x00, 0x00,
  0xa6, 0x00, 0x00, 0x00, 0x01, 0x00, 0x00, 0x00, 0xa2, 0x00, 0x00, 0x00,
  0xb2, 0xeb, 0xff, 0xff, 0x14, 0x00, 0x00, 0x00, 0x00, 0x00, 0x00, 0x15,
  0x10, 0x00, 0x00, 0x00, 0x14, 0x00, 0x00, 0x00, 0x06, 0x00, 0x00, 0x00,
  0x18, 0x44, 0xff, 0xff, 0x01, 0x00, 0x00, 0x00, 0xa5, 0x00, 0x00, 0x00,
  0x02, 0x00, 0x00, 0x00, 0xa4, 0x00, 0x00, 0x00, 0x99, 0x00, 0x00, 0x00,
  0x82, 0xec, 0xff, 0xff, 0x0c, 0x00, 0x00, 0x00, 0x10, 0x00, 0x00, 0x00,
  0x04, 0x00, 0x00, 0x00, 0x01, 0x00, 0x00, 0x00, 0xa4, 0x00, 0x00, 0x00,
  0x01, 0x00, 0x00, 0x00, 0xa0, 0x00, 0x00, 0x00, 0xa2, 0xec, 0xff, 0xff,
  0x0c, 0x00, 0x00, 0x00, 0x10, 0x00, 0x00, 0x00, 0x04, 0x00, 0x00, 0x00,
  0x01, 0x00, 0x00, 0x00, 0xa3, 0x00, 0x00, 0x00, 0x01, 0x00, 0x00, 0x00,
  0x9f, 0x00, 0x00, 0x00, 0x22, 0xec, 0xff, 0xff, 0x14, 0x00, 0x00, 0x00,
  0x00, 0x00, 0x00, 0x23, 0x14, 0x00, 0x00, 0x00, 0x24, 0x00, 0x00, 0x00,
  0x03, 0x00, 0x00, 0x00, 0x12, 0xec, 0xff, 0xff, 0x04, 0x00, 0x00, 0x00,
  0x04, 0x00, 0x00, 0x00, 0x9f, 0x00, 0x00, 0x00, 0xa0, 0x00, 0x00, 0x00,
  0xa1, 0x00, 0x00, 0x00, 0xa2, 0x00, 0x00, 0x00, 0x02, 0x00, 0x00, 0x00,
  0x02, 0x00, 0x00, 0x00, 0x9e, 0x00, 0x00, 0x00, 0x62, 0xec, 0xff, 0xff,
  0x14, 0x00, 0x00, 0x00, 0x00, 0x00, 0x00, 0x0b, 0x10, 0x00, 0x00, 0x00,
  0x14, 0x00, 0x00, 0x00, 0x07, 0x00, 0x00, 0x00, 0xc8, 0x44, 0xff, 0xff,
  0x01, 0x00, 0x00, 0x00, 0x9e, 0x00, 0x00, 0x00, 0x02, 0x00, 0x00, 0x00,
  0x9d, 0x00, 0x00, 0x00, 0x07, 0x00, 0x00, 0x00, 0x92, 0xec, 0xff, 0xff,
  0x14, 0x00, 0x00, 0x00, 0x00, 0x00, 0x00, 0x0b, 0x10, 0x00, 0x00, 0x00,
  0x14, 0x00, 0x00, 0x00, 0x07, 0x00, 0x00, 0x00, 0xf8, 0x44, 0xff, 0xff,
  0x01, 0x00, 0x00, 0x00, 0x9d, 0x00, 0x00, 0x00, 0x02, 0x00, 0x00, 0x00,
  0x25, 0x00, 0x00, 0x00, 0x9c, 0x00, 0x00, 0x00, 0xc2, 0xec, 0xff, 0xff,
  0x14, 0x00, 0x00, 0x00, 0x00, 0x00, 0x00, 0x08, 0x10, 0x00, 0x00, 0x00,
  0x14, 0x00, 0x00, 0x00, 0x02, 0x00, 0x00, 0x00, 0x28, 0x45, 0xff, 0xff,
  0x01, 0x00, 0x00, 0x00, 0x9c, 0x00, 0x00, 0x00, 0x03, 0x00, 0x00, 0x00,
  0x9b, 0x00, 0x00, 0x00, 0x05, 0x00, 0x00, 0x00, 0xff, 0xff, 0xff, 0xff,
  0xf6, 0xec, 0xff, 0xff, 0x14, 0x00, 0x00, 0x00, 0x00, 0x00, 0x00, 0x15,
  0x10, 0x00, 0x00, 0x00, 0x14, 0x00, 0x00, 0x00, 0x06, 0x00, 0x00, 0x00,
  0x5c, 0x45, 0xff, 0xff, 0x01, 0x00, 0x00, 0x00, 0x9b, 0x00, 0x00, 0x00,
  0x02, 0x00, 0x00, 0x00, 0x96, 0x00, 0x00, 0x00, 0x9a, 0x00, 0x00, 0x00,
  0xc6, 0xed, 0xff, 0xff, 0x0c, 0x00, 0x00, 0x00, 0x10, 0x00, 0x00, 0x00,
  0x05, 0x00, 0x00, 0x00, 0x01, 0x00, 0x00, 0x00, 0x9a, 0x00, 0x00, 0x00,
  0x01, 0x00, 0x00, 0x00, 0x99, 0x00, 0x00, 0x00, 0x46, 0xed, 0xff, 0xff,
  0x14, 0x00, 0x00, 0x00, 0x00, 0x00, 0x00, 0x0b, 0x10, 0x00, 0x00, 0x00,
  0x14, 0x00, 0x00, 0x00, 0x07, 0x00, 0x00, 0x00, 0xac, 0x45, 0xff, 0xff,
  0x01, 0x00, 0x00, 0x00, 0x99, 0x00, 0x00, 0x00, 0x02, 0x00, 0x00, 0x00,
  0x95, 0x00, 0x00, 0x00, 0x98, 0x00, 0x00, 0x00, 0x76, 0xed, 0xff, 0xff,
  0x14, 0x00, 0x00, 0x00, 0x00, 0x00, 0x00, 0x15, 0x10, 0x00, 0x00, 0x00,
  0x14, 0x00, 0x00, 0x00, 0x06, 0x00, 0x00, 0x00, 0xdc, 0x45, 0xff, 0xff,
  0x01, 0x00, 0x00, 0x00, 0x98, 0x00, 0x00, 0x00, 0x02, 0x00, 0x00, 0x00,
  0x93, 0x00, 0x00, 0x00, 0x97, 0x00, 0x00, 0x00, 0x46, 0xee, 0xff, 0xff,
  0x0c, 0x00, 0x00, 0x00, 0x10, 0x00, 0x00, 0x00, 0x05, 0x00, 0x00, 0x00,
  0x01, 0x00, 0x00, 0x00, 0x97, 0x00, 0x00, 0x00, 0x01, 0x00, 0x00, 0x00,
  0x91, 0x00, 0x00, 0x00, 0x66, 0xee, 0xff, 0xff, 0x0c, 0x00, 0x00, 0x00,
  0x10, 0x00, 0x00, 0x00, 0x04, 0x00, 0x00, 0x00, 0x01, 0x00, 0x00, 0x00,
  0x96, 0x00, 0x00, 0x00, 0x01, 0x00, 0x00, 0x00, 0x92, 0x00, 0x00, 0x00,
  0xe6, 0xed, 0xff, 0xff, 0x14, 0x00, 0x00, 0x00, 0x00, 0x00, 0x00, 0x15,
  0x10, 0x00, 0x00, 0x00, 0x14, 0x00, 0x00, 0x00, 0x06, 0x00, 0x00, 0x00,
  0x4c, 0x46, 0xff, 0xff, 0x01, 0x00, 0x00, 0x00, 0x95, 0x00, 0x00, 0x00,
  0x02, 0x00, 0x00, 0x00, 0x94, 0x00, 0x00, 0x00, 0x89, 0x00, 0x00, 0x00,
  0xb6, 0xee, 0xff, 0xff, 0x0c, 0x00, 0x00, 0x00, 0x10, 0x00, 0x00, 0x00,
  0x04, 0x00, 0x00, 0x00, 0x01, 0x00, 0x00, 0x00, 0x94, 0x00, 0x00, 0x00,
  0x01, 0x00, 0x00, 0x00, 0x90, 0x00, 0x00, 0x00, 0xd6, 0xee, 0xff, 0xff,
  0x0c, 0x00, 0x00, 0x00, 0x10, 0x00, 0x00, 0x00, 0x04, 0x00, 0x00, 0x00,
  0x01, 0x00, 0x00, 0x00, 0x93, 0x00, 0x00, 0x00, 0x01, 0x00, 0x00, 0x00,
  0x8f, 0x00, 0x00, 0x00, 0x56, 0xee, 0xff, 0xff, 0x14, 0x00, 0x00, 0x00,
  0x00, 0x00, 0x00, 0x23, 0x14, 0x00, 0x00, 0x00, 0x24, 0x00, 0x00, 0x00,
  0x03, 0x00, 0x00, 0x00, 0x46, 0xee, 0xff, 0xff, 0x04, 0x00, 0x00, 0x00,
  0x04, 0x00, 0x00, 0x00, 0x8f, 0x00, 0x00, 0x00, 0x90, 0x00, 0x00, 0x00,
  0x91, 0x00, 0x00, 0x00, 0x92, 0x00, 0x00, 0x00, 0x02, 0x00, 0x00, 0x00,
  0x02, 0x00, 0x00, 0x00, 0x8e, 0x00, 0x00, 0x00, 0x96, 0xee, 0xff, 0xff,
  0x14, 0x00, 0x00, 0x00, 0x00, 0x00, 0x00, 0x0b, 0x10, 0x00, 0x00, 0x00,
  0x14, 0x00, 0x00, 0x00, 0x07, 0x00, 0x00, 0x00, 0xfc, 0x46, 0xff, 0xff,
  0x01, 0x00, 0x00, 0x00, 0x8e, 0x00, 0x00, 0x00, 0x02, 0x00, 0x00, 0x00,
  0x8d, 0x00, 0x00, 0x00, 0x07, 0x00, 0x00, 0x00, 0xc6, 0xee, 0xff, 0xff,
  0x14, 0x00, 0x00, 0x00, 0x00, 0x00, 0x00, 0x0b, 0x10, 0x00, 0x00, 0x00,
  0x14, 0x00, 0x00, 0x00, 0x07, 0x00, 0x00, 0x00, 0x2c, 0x47, 0xff, 0xff,
  0x01, 0x00, 0x00, 0x00, 0x8d, 0x00, 0x00, 0x00, 0x02, 0x00, 0x00, 0x00,
  0x24, 0x00, 0x00, 0x00, 0x8c, 0x00, 0x00, 0x00, 0xf6, 0xee, 0xff, 0xff,
  0x14, 0x00, 0x00, 0x00, 0x00, 0x00, 0x00, 0x08, 0x10, 0x00, 0x00, 0x00,
  0x14, 0x00, 0x00, 0x00, 0x02, 0x00, 0x00, 0x00, 0x5c, 0x47, 0xff, 0xff,
  0x01, 0x00, 0x00, 0x00, 0x8c, 0x00, 0x00, 0x00, 0x03, 0x00, 0x00, 0x00,
  0x8b, 0x00, 0x00, 0x00, 0x05, 0x00, 0x00, 0x00, 0xff, 0xff, 0xff, 0xff,
  0x2a, 0xef, 0xff, 0xff, 0x14, 0x00, 0x00, 0x00, 0x00, 0x00, 0x00, 0x15,
  0x10, 0x00, 0x00, 0x00, 0x14, 0x00, 0x00, 0x00, 0x06, 0x00, 0x00, 0x00,
  0x90, 0x47, 0xff, 0xff, 0x01, 0x00, 0x00, 0x00, 0x8b, 0x00, 0x00, 0x00,
  0x02, 0x00, 0x00, 0x00, 0x86, 0x00, 0x00, 0x00, 0x8a, 0x00, 0x00, 0x00,
  0xfa, 0xef, 0xff, 0xff, 0x0c, 0x00, 0x00, 0x00, 0x10, 0x00, 0x00, 0x00,
  0x05, 0x00, 0x00, 0x00, 0x01, 0x00, 0x00, 0x00, 0x8a, 0x00, 0x00, 0x00,
  0x01, 0x00, 0x00, 0x00, 0x89, 0x00, 0x00, 0x00, 0x7a, 0xef, 0xff, 0xff,
  0x14, 0x00, 0x00, 0x00, 0x00, 0x00, 0x00, 0x0b, 0x10, 0x00, 0x00, 0x00,
  0x14, 0x00, 0x00, 0x00, 0x07, 0x00, 0x00, 0x00, 0xe0, 0x47, 0xff, 0xff,
  0x01, 0x00, 0x00, 0x00, 0x89, 0x00, 0x00, 0x00, 0x02, 0x00, 0x00, 0x00,
  0x85, 0x00, 0x00, 0x00, 0x88, 0x00, 0x00, 0x00, 0xaa, 0xef, 0xff, 0xff,
  0x14, 0x00, 0x00, 0x00, 0x00, 0x00, 0x00, 0x15, 0x10, 0x00, 0x00, 0x00,
  0x14, 0x00, 0x00, 0x00, 0x06, 0x00, 0x00, 0x00, 0x10, 0x48, 0xff, 0xff,
  0x01, 0x00, 0x00, 0x00, 0x88, 0x00, 0x00, 0x00, 0x02, 0x00, 0x00, 0x00,
  0x83, 0x00, 0x00, 0x00, 0x87, 0x00, 0x00, 0x00, 0x7a, 0xf0, 0xff, 0xff,
  0x0c, 0x00, 0x00, 0x00, 0x10, 0x00, 0x00, 0x00, 0x05, 0x00, 0x00, 0x00,
  0x01, 0x00, 0x00, 0x00, 0x87, 0x00, 0x00, 0x00, 0x01, 0x00, 0x00, 0x00,
  0x81, 0x00, 0x00, 0x00, 0x9a, 0xf0, 0xff, 0xff, 0x0c, 0x00, 0x00, 0x00,
  0x10, 0x00, 0x00, 0x00, 0x04, 0x00, 0x00, 0x00, 0x01, 0x00, 0x00, 0x00,
  0x86, 0x00, 0x00, 0x00, 0x01, 0x00, 0x00, 0x00, 0x82, 0x00, 0x00, 0x00,
  0x1a, 0xf0, 0xff, 0xff, 0x14, 0x00, 0x00, 0x00, 0x00, 0x00, 0x00, 0x15,
  0x10, 0x00, 0x00, 0x00, 0x14, 0x00, 0x00, 0x00, 0x06, 0x00, 0x00, 0x00,
  0x80, 0x48, 0xff, 0xff, 0x01, 0x00, 0x00, 0x00, 0x85, 0x00, 0x00, 0x00,
  0x02, 0x00, 0x00, 0x00, 0x84, 0x00, 0x00, 0x00, 0x79, 0x00, 0x00, 0x00,
  0xea, 0xf0, 0xff, 0xff, 0x0c, 0x00, 0x00, 0x00, 0x10, 0x00, 0x00, 0x00,
  0x04, 0x00, 0x00, 0x00, 0x01, 0x00, 0x00, 0x00, 0x84, 0x00, 0x00, 0x00,
  0x01, 0x00, 0x00, 0x00, 0x80, 0x00, 0x00, 0x00, 0x0a, 0xf1, 0xff, 0xff,
  0x0c, 0x00, 0x00, 0x00, 0x10, 0x00, 0x00, 0x00, 0x04, 0x00, 0x00, 0x00,
  0x01, 0x00, 0x00, 0x00, 0x83, 0x00, 0x00, 0x00, 0x01, 0x00, 0x00, 0x00,
  0x7f, 0x00, 0x00, 0x00, 0x8a, 0xf0, 0xff, 0xff, 0x14, 0x00, 0x00, 0x00,
  0x00, 0x00, 0x00, 0x23, 0x14, 0x00, 0x00, 0x00, 0x24, 0x00, 0x00, 0x00,
  0x03, 0x00, 0x00, 0x00, 0x7a, 0xf0, 0xff, 0xff, 0x04, 0x00, 0x00, 0x00,
  0x04, 0x00, 0x00, 0x00, 0x7f, 0x00, 0x00, 0x00, 0x80, 0x00, 0x00, 0x00,
  0x81, 0x00, 0x00, 0x00, 0x82, 0x00, 0x00, 0x00, 0x02, 0x00, 0x00, 0x00,
  0x02, 0x00, 0x00, 0x00, 0x7e, 0x00, 0x00, 0x00, 0xca, 0xf0, 0xff, 0xff,
  0x14, 0x00, 0x00, 0x00, 0x00, 0x00, 0x00, 0x0b, 0x10, 0x00, 0x00, 0x00,
  0x14, 0x00, 0x00, 0x00, 0x07, 0x00, 0x00, 0x00, 0x30, 0x49, 0xff, 0xff,
  0x01, 0x00, 0x00, 0x00, 0x7e, 0x00, 0x00, 0x00, 0x02, 0x00, 0x00, 0x00,
  0x7d, 0x00, 0x00, 0x00, 0x07, 0x00, 0x00, 0x00, 0xfa, 0xf0, 0xff, 0xff,
  0x14, 0x00, 0x00, 0x00, 0x00, 0x00, 0x00, 0x0b, 0x10, 0x00, 0x00, 0x00,
  0x14, 0x00, 0x00, 0x00, 0x07, 0x00, 0x00, 0x00, 0x60, 0x49, 0xff, 0xff,
  0x01, 0x00, 0x00, 0x00, 0x7d, 0x00, 0x00, 0x00, 0x02, 0x00, 0x00, 0x00,
  0x23, 0x00, 0x00, 0x00, 0x7c, 0x00, 0x00, 0x00, 0x2a, 0xf1, 0xff, 0xff,
  0x14, 0x00, 0x00, 0x00, 0x00, 0x00, 0x00, 0x08, 0x10, 0x00, 0x00, 0x00,
  0x14, 0x00, 0x00, 0x00, 0x02, 0x00, 0x00, 0x00, 0x90, 0x49, 0xff, 0xff,
  0x01, 0x00, 0x00, 0x00, 0x7c, 0x00, 0x00, 0x00, 0x03, 0x00, 0x00, 0x00,
  0x7b, 0x00, 0x00, 0x00, 0x05, 0x00, 0x00, 0x00, 0xff, 0xff, 0xff, 0xff,
  0x5e, 0xf1, 0xff, 0xff, 0x14, 0x00, 0x00, 0x00, 0x00, 0x00, 0x00, 0x15,
  0x10, 0x00, 0x00, 0x00, 0x14, 0x00, 0x00, 0x00, 0x06, 0x00, 0x00, 0x00,
  0xc4, 0x49, 0xff, 0xff, 0x01, 0x00, 0x00, 0x00, 0x7b, 0x00, 0x00, 0x00,
  0x02, 0x00, 0x00, 0x00, 0x76, 0x00, 0x00, 0x00, 0x7a, 0x00, 0x00, 0x00,
  0x2e, 0xf2, 0xff, 0xff, 0x0c, 0x00, 0x00, 0x00, 0x10, 0x00, 0x00, 0x00,
  0x05, 0x00, 0x00, 0x00, 0x01, 0x00, 0x00, 0x00, 0x7a, 0x00, 0x00, 0x00,
  0x01, 0x00, 0x00, 0x00, 0x79, 0x00, 0x00, 0x00, 0xae, 0xf1, 0xff, 0xff,
  0x14, 0x00, 0x00, 0x00, 0x00, 0x00, 0x00, 0x0b, 0x10, 0x00, 0x00, 0x00,
  0x14, 0x00, 0x00, 0x00, 0x07, 0x00, 0x00, 0x00, 0x14, 0x4a, 0xff, 0xff,
  0x01, 0x00, 0x00, 0x00, 0x79, 0x00, 0x00, 0x00, 0x02, 0x00, 0x00, 0x00,
  0x75, 0x00, 0x00, 0x00, 0x78, 0x00, 0x00, 0x00, 0xde, 0xf1, 0xff, 0xff,
  0x14, 0x00, 0x00, 0x00, 0x00, 0x00, 0x00, 0x15, 0x10, 0x00, 0x00, 0x00,
  0x14, 0x00, 0x00, 0x00, 0x06, 0x00, 0x00, 0x00, 0x44, 0x4a, 0xff, 0xff,
  0x01, 0x00, 0x00, 0x00, 0x78, 0x00, 0x00, 0x00, 0x02, 0x00, 0x00, 0x00,
  0x73, 0x00, 0x00, 0x00, 0x77, 0x00, 0x00, 0x00, 0xae, 0xf2, 0xff, 0xff,
  0x0c, 0x00, 0x00, 0x00, 0x10, 0x00, 0x00, 0x00, 0x05, 0x00, 0x00, 0x00,
  0x01, 0x00, 0x00, 0x00, 0x77, 0x00, 0x00, 0x00, 0x01, 0x00, 0x00, 0x00,
  0x71, 0x00, 0x00, 0x00, 0xce, 0xf2, 0xff, 0xff, 0x0c, 0x00, 0x00, 0x00,
  0x10, 0x00, 0x00, 0x00, 0x04, 0x00, 0x00, 0x00, 0x01, 0x00, 0x00, 0x00,
  0x76, 0x00, 0x00, 0x00, 0x01, 0x00, 0x00, 0x00, 0x72, 0x00, 0x00, 0x00,
  0x4e, 0xf2, 0xff, 0xff, 0x14, 0x00, 0x00, 0x00, 0x00, 0x00, 0x00, 0x15,
  0x10, 0x00, 0x00, 0x00, 0x14, 0x00, 0x00, 0x00, 0x06, 0x00, 0x00, 0x00,
  0xb4, 0x4a, 0xff, 0xff, 0x01, 0x00, 0x00, 0x00, 0x75, 0x00, 0x00, 0x00,
  0x02, 0x00, 0x00, 0x00, 0x74, 0x00, 0x00, 0x00, 0x69, 0x00, 0x00, 0x00,
  0x1e, 0xf3, 0xff, 0xff, 0x0c, 0x00, 0x00, 0x00, 0x10, 0x00, 0x00, 0x00,
  0x04, 0x00, 0x00, 0x00, 0x01, 0x00, 0x00, 0x00, 0x74, 0x00, 0x00, 0x00,
  0x01, 0x00, 0x00, 0x00, 0x70, 0x00, 0x00, 0x00, 0x3e, 0xf3, 0xff, 0xff,
  0x0c, 0x00, 0x00, 0x00, 0x10, 0x00, 0x00, 0x00, 0x04, 0x00, 0x00, 0x00,
  0x01, 0x00, 0x00, 0x00, 0x73, 0x00, 0x00, 0x00, 0x01, 0x00, 0x00, 0x00,
  0x6f, 0x00, 0x00, 0x00, 0xbe, 0xf2, 0xff, 0xff, 0x14, 0x00, 0x00, 0x00,
  0x00, 0x00, 0x00, 0x23, 0x14, 0x00, 0x00, 0x00, 0x24, 0x00, 0x00, 0x00,
  0x03, 0x00, 0x00, 0x00, 0xae, 0xf2, 0xff, 0xff, 0x04, 0x00, 0x00, 0x00,
  0x04, 0x00, 0x00, 0x00, 0x6f, 0x00, 0x00, 0x00, 0x70, 0x00, 0x00, 0x00,
  0x71, 0x00, 0x00, 0x00, 0x72, 0x00, 0x00, 0x00, 0x02, 0x00, 0x00, 0x00,
  0x02, 0x00, 0x00, 0x00, 0x6e, 0x00, 0x00, 0x00, 0xfe, 0xf2, 0xff, 0xff,
  0x14, 0x00, 0x00, 0x00, 0x00, 0x00, 0x00, 0x0b, 0x10, 0x00, 0x00, 0x00,
  0x14, 0x00, 0x00, 0x00, 0x07, 0x00, 0x00, 0x00, 0x64, 0x4b, 0xff, 0xff,
  0x01, 0x00, 0x00, 0x00, 0x6e, 0x00, 0x00, 0x00, 0x02, 0x00, 0x00, 0x00,
  0x6d, 0x00, 0x00, 0x00, 0x07, 0x00, 0x00, 0x00, 0x2e, 0xf3, 0xff, 0xff,
  0x14, 0x00, 0x00, 0x00, 0x00, 0x00, 0x00, 0x0b, 0x10, 0x00, 0x00, 0x00,
  0x14, 0x00, 0x00, 0x00, 0x07, 0x00, 0x00, 0x00, 0x94, 0x4b, 0xff, 0xff,
  0x01, 0x00, 0x00, 0x00, 0x6d, 0x00, 0x00, 0x00, 0x02, 0x00, 0x00, 0x00,
  0x22, 0x00, 0x00, 0x00, 0x6c, 0x00, 0x00, 0x00, 0x5e, 0xf3, 0xff, 0xff,
  0x14, 0x00, 0x00, 0x00, 0x00, 0x00, 0x00, 0x08, 0x10, 0x00, 0x00, 0x00,
  0x14, 0x00, 0x00, 0x00, 0x02, 0x00, 0x00, 0x00, 0xc4, 0x4b, 0xff, 0xff,
  0x01, 0x00, 0x00, 0x00, 0x6c, 0x00, 0x00, 0x00, 0x03, 0x00, 0x00, 0x00,
  0x6b, 0x00, 0x00, 0x00, 0x05, 0x00, 0x00, 0x00, 0xff, 0xff, 0xff, 0xff,
  0x92, 0xf3, 0xff, 0xff, 0x14, 0x00, 0x00, 0x00, 0x00, 0x00, 0x00, 0x15,
  0x10, 0x00, 0x00, 0x00, 0x14, 0x00, 0x00, 0x00, 0x06, 0x00, 0x00, 0x00,
  0xf8, 0x4b, 0xff, 0xff, 0x01, 0x00, 0x00, 0x00, 0x6b, 0x00, 0x00, 0x00,
  0x02, 0x00, 0x00, 0x00, 0x66, 0x00, 0x00, 0x00, 0x6a, 0x00, 0x00, 0x00,
  0x62, 0xf4, 0xff, 0xff, 0x0c, 0x00, 0x00, 0x00, 0x10, 0x00, 0x00, 0x00,
  0x05, 0x00, 0x00, 0x00, 0x01, 0x00, 0x00, 0x00, 0x6a, 0x00, 0x00, 0x00,
  0x01, 0x00, 0x00, 0x00, 0x69, 0x00, 0x00, 0x00, 0xe2, 0xf3, 0xff, 0xff,
  0x14, 0x00, 0x00, 0x00, 0x00, 0x00, 0x00, 0x0b, 0x10, 0x00, 0x00, 0x00,
  0x14, 0x00, 0x00, 0x00, 0x07, 0x00, 0x00, 0x00, 0x48, 0x4c, 0xff, 0xff,
  0x01, 0x00, 0x00, 0x00, 0x69, 0x00, 0x00, 0x00, 0x02, 0x00, 0x00, 0x00,
  0x65, 0x00, 0x00, 0x00, 0x68, 0x00, 0x00, 0x00, 0x12, 0xf4, 0xff, 0xff,
  0x14, 0x00, 0x00, 0x00, 0x00, 0x00, 0x00, 0x15, 0x10, 0x00, 0x00, 0x00,
  0x14, 0x00, 0x00, 0x00, 0x06, 0x00, 0x00, 0x00, 0x78, 0x4c, 0xff, 0xff,
  0x01, 0x00, 0x00, 0x00, 0x68, 0x00, 0x00, 0x00, 0x02, 0x00, 0x00, 0x00,
  0x63, 0x00, 0x00, 0x00, 0x67, 0x00, 0x00, 0x00, 0xe2, 0xf4, 0xff, 0xff,
  0x0c, 0x00, 0x00, 0x00, 0x10, 0x00, 0x00, 0x00, 0x05, 0x00, 0x00, 0x00,
  0x01, 0x00, 0x00, 0x00, 0x67, 0x00, 0x00, 0x00, 0x01, 0x00, 0x00, 0x00,
  0x61, 0x00, 0x00, 0x00, 0x02, 0xf5, 0xff, 0xff, 0x0c, 0x00, 0x00, 0x00,
  0x10, 0x00, 0x00, 0x00, 0x04, 0x00, 0x00, 0x00, 0x01, 0x00, 0x00, 0x00,
  0x66, 0x00, 0x00, 0x00, 0x01, 0x00, 0x00, 0x00, 0x62, 0x00, 0x00, 0x00,
  0x82, 0xf4, 0xff, 0xff, 0x14, 0x00, 0x00, 0x00, 0x00, 0x00, 0x00, 0x15,
  0x10, 0x00, 0x00, 0x00, 0x14, 0x00, 0x00, 0x00, 0x06, 0x00, 0x00, 0x00,
  0xe8, 0x4c, 0xff, 0xff, 0x01, 0x00, 0x00, 0x00, 0x65, 0x00, 0x00, 0x00,
  0x02, 0x00, 0x00, 0x00, 0x64, 0x00, 0x00, 0x00, 0x58, 0x00, 0x00, 0x00,
  0x52, 0xf5, 0xff, 0xff, 0x0c, 0x00, 0x00, 0x00, 0x10, 0x00, 0x00, 0x00,
  0x04, 0x00, 0x00, 0x00, 0x01, 0x00, 0x00, 0x00, 0x64, 0x00, 0x00, 0x00,
  0x01, 0x00, 0x00, 0x00, 0x60, 0x00, 0x00, 0x00, 0x72, 0xf5, 0xff, 0xff,
  0x0c, 0x00, 0x00, 0x00, 0x10, 0x00, 0x00, 0x00, 0x04, 0x00, 0x00, 0x00,
  0x01, 0x00, 0x00, 0x00, 0x63, 0x00, 0x00, 0x00, 0x01, 0x00, 0x00, 0x00,
  0x5f, 0x00, 0x00, 0x00, 0xf2, 0xf4, 0xff, 0xff, 0x14, 0x00, 0x00, 0x00,
  0x00, 0x00, 0x00, 0x23, 0x14, 0x00, 0x00, 0x00, 0x24, 0x00, 0x00, 0x00,
  0x03, 0x00, 0x00, 0x00, 0xe2, 0xf4, 0xff, 0xff, 0x04, 0x00, 0x00, 0x00,
  0x04, 0x00, 0x00, 0x00, 0x5f, 0x00, 0x00, 0x00, 0x60, 0x00, 0x00, 0x00,
  0x61, 0x00, 0x00, 0x00, 0x62, 0x00, 0x00, 0x00, 0x02, 0x00, 0x00, 0x00,
  0x02, 0x00, 0x00, 0x00, 0x5e, 0x00, 0x00, 0x00, 0x32, 0xf5, 0xff, 0xff,
  0x14, 0x00, 0x00, 0x00, 0x00, 0x00, 0x00, 0x0b, 0x10, 0x00, 0x00, 0x00,
  0x14, 0x00, 0x00, 0x00, 0x07, 0x00, 0x00, 0x00, 0x98, 0x4d, 0xff, 0xff,
  0x01, 0x00, 0x00, 0x00, 0x5e, 0x00, 0x00, 0x00, 0x02, 0x00, 0x00, 0x00,
  0x5d, 0x00, 0x00, 0x00, 0x07, 0x00, 0x00, 0x00, 0x62, 0xf5, 0xff, 0xff,
  0x14, 0x00, 0x00, 0x00, 0x00, 0x00, 0x00, 0x0b, 0x10, 0x00, 0x00, 0x00,
  0x14, 0x00, 0x00, 0x00, 0x07, 0x00, 0x00, 0x00, 0xc8, 0x4d, 0xff, 0xff,
  0x01, 0x00, 0x00, 0x00, 0x5d, 0x00, 0x00, 0x00, 0x02, 0x00, 0x00, 0x00,
  0x5c, 0x00, 0x00, 0x00, 0x5b, 0x00, 0x00, 0x00, 0x92, 0xf5, 0xff, 0xff,
  0x14, 0x00, 0x00, 0x00, 0x00, 0x00, 0x00, 0x08, 0x10, 0x00, 0x00, 0x00,
  0x14, 0x00, 0x00, 0x00, 0x02, 0x00, 0x00, 0x00, 0xf8, 0x4d, 0xff, 0xff,
  0x01, 0x00, 0x00, 0x00, 0x5c, 0x00, 0x00, 0x00, 0x03, 0x00, 0x00, 0x00,
  0x0e, 0x00, 0x00, 0x00, 0x08, 0x00, 0x00, 0x00, 0xff, 0xff, 0xff, 0xff,
  0xc6, 0xf5, 0xff, 0xff, 0x14, 0x00, 0x00, 0x00, 0x00, 0x00, 0x00, 0x08,
  0x10, 0x00, 0x00, 0x00, 0x14, 0x00, 0x00, 0x00, 0x02, 0x00, 0x00, 0x00,
  0x2c, 0x4e, 0xff, 0xff, 0x01, 0x00, 0x00, 0x00, 0x5b, 0x00, 0x00, 0x00,
  0x03, 0x00, 0x00, 0x00, 0x5a, 0x00, 0x00, 0x00, 0x05, 0x00, 0x00, 0x00,
  0xff, 0xff, 0xff, 0xff, 0xfa, 0xf5, 0xff, 0xff, 0x14, 0x00, 0x00, 0x00,
  0x00, 0x00, 0x00, 0x15, 0x10, 0x00, 0x00, 0x00, 0x14, 0x00, 0x00, 0x00,
  0x06, 0x00, 0x00, 0x00, 0x60, 0x4e, 0xff, 0xff, 0x01, 0x00, 0x00, 0x00,
  0x5a, 0x00, 0x00, 0x00, 0x02, 0x00, 0x00, 0x00, 0x55, 0x00, 0x00, 0x00,
  0x59, 0x00, 0x00, 0x00, 0xca, 0xf6, 0xff, 0xff, 0x0c, 0x00, 0x00, 0x00,
  0x10, 0x00, 0x00, 0x00, 0x05, 0x00, 0x00, 0x00, 0x01, 0x00, 0x00, 0x00,
  0x59, 0x00, 0x00, 0x00, 0x01, 0x00, 0x00, 0x00, 0x58, 0x00, 0x00, 0x00,
  0x4a, 0xf6, 0xff, 0xff, 0x14, 0x00, 0x00, 0x00, 0x00, 0x00, 0x00, 0x0b,
  0x10, 0x00, 0x00, 0x00, 0x14, 0x00, 0x00, 0x00, 0x07, 0x00, 0x00, 0x00,
  0xb0, 0x4e, 0xff, 0xff, 0x01, 0x00, 0x00, 0x00, 0x58, 0x00, 0x00, 0x00,
  0x02, 0x00, 0x00, 0x00, 0x54, 0x00, 0x00, 0x00, 0x57, 0x00, 0x00, 0x00,
  0x7a, 0xf6, 0xff, 0xff, 0x14, 0x00, 0x00, 0x00, 0x00, 0x00, 0x00, 0x15,
  0x10, 0x00, 0x00, 0x00, 0x14, 0x00, 0x00, 0x00, 0x06, 0x00, 0x00, 0x00,
  0xe0, 0x4e, 0xff, 0xff, 0x01, 0x00, 0x00, 0x00, 0x57, 0x00, 0x00, 0x00,
  0x02, 0x00, 0x00, 0x00, 0x52, 0x00, 0x00, 0x00, 0x56, 0x00, 0x00, 0x00,
  0x4a, 0xf7, 0xff, 0xff, 0x0c, 0x00, 0x00, 0x00, 0x10, 0x00, 0x00, 0x00,
  0x05, 0x00, 0x00, 0x00, 0x01, 0x00, 0x00, 0x00, 0x56, 0x00, 0x00, 0x00,
  0x01, 0x00, 0x00, 0x00, 0x50, 0x00, 0x00, 0x00, 0x6a, 0xf7, 0xff, 0xff,
  0x0c, 0x00, 0x00, 0x00, 0x10, 0x00, 0x00, 0x00, 0x04, 0x00, 0x00, 0x00,
  0x01, 0x00, 0x00, 0x00, 0x55, 0x00, 0x00, 0x00, 0x01, 0x00, 0x00, 0x00,
  0x51, 0x00, 0x00, 0x00, 0xea, 0xf6, 0xff, 0xff, 0x14, 0x00, 0x00, 0x00,
  0x00, 0x00, 0x00, 0x15, 0x10, 0x00, 0x00, 0x00, 0x14, 0x00, 0x00, 0x00,
  0x06, 0x00, 0x00, 0x00, 0x50, 0x4f, 0xff, 0xff, 0x01, 0x00, 0x00, 0x00,
  0x54, 0x00, 0x00, 0x00, 0x02, 0x00, 0x00, 0x00, 0x53, 0x00, 0x00, 0x00,
  0x47, 0x00, 0x00, 0x00, 0xba, 0xf7, 0xff, 0xff, 0x0c, 0x00, 0x00, 0x00,
  0x10, 0x00, 0x00, 0x00, 0x04, 0x00, 0x00, 0x00, 0x01, 0x00, 0x00, 0x00,
  0x53, 0x00, 0x00, 0x00, 0x01, 0x00, 0x00, 0x00, 0x4f, 0x00, 0x00, 0x00,
  0xda, 0xf7, 0xff, 0xff, 0x0c, 0x00, 0x00, 0x00, 0x10, 0x00, 0x00, 0x00,
  0x04, 0x00, 0x00, 0x00, 0x01, 0x00, 0x00, 0x00, 0x52, 0x00, 0x00, 0x00,
  0x01, 0x00, 0x00, 0x00, 0x4e, 0x00, 0x00, 0x00, 0x5a, 0xf7, 0xff, 0xff,
  0x14, 0x00, 0x00, 0x00, 0x00, 0x00, 0x00, 0x23, 0x14, 0x00, 0x00, 0x00,
  0x24, 0x00, 0x00, 0x00, 0x03, 0x00, 0x00, 0x00, 0x4a, 0xf7, 0xff, 0xff,
  0x04, 0x00, 0x00, 0x00, 0x04, 0x00, 0x00, 0x00, 0x4e, 0x00, 0x00, 0x00,
  0x4f, 0x00, 0x00, 0x00, 0x50, 0x00, 0x00, 0x00, 0x51, 0x00, 0x00, 0x00,
  0x02, 0x00, 0x00, 0x00, 0x02, 0x00, 0x00, 0x00, 0x4d, 0x00, 0x00, 0x00,
  0x9a, 0xf7, 0xff, 0xff, 0x14, 0x00, 0x00, 0x00, 0x00, 0x00, 0x00, 0x0b,
  0x10, 0x00, 0x00, 0x00, 0x14, 0x00, 0x00, 0x00, 0x07, 0x00, 0x00, 0x00,
  0x00, 0x50, 0xff, 0xff, 0x01, 0x00, 0x00, 0x00, 0x4d, 0x00, 0x00, 0x00,
  0x02, 0x00, 0x00, 0x00, 0x4c, 0x00, 0x00, 0x00, 0x07, 0x00, 0x00, 0x00,
  0xca, 0xf7, 0xff, 0xff, 0x14, 0x00, 0x00, 0x00, 0x00, 0x00, 0x00, 0x0b,
  0x10, 0x00, 0x00, 0x00, 0x14, 0x00, 0x00, 0x00, 0x07, 0x00, 0x00, 0x00,
  0x30, 0x50, 0xff, 0xff, 0x01, 0x00, 0x00, 0x00, 0x4c, 0x00, 0x00, 0x00,
  0x02, 0x00, 0x00, 0x00, 0x4b, 0x00, 0x00, 0x00, 0x4a, 0x00, 0x00, 0x00,
  0xfa, 0xf7, 0xff, 0xff, 0x14, 0x00, 0x00, 0x00, 0x00, 0x00, 0x00, 0x08,
  0x10, 0x00, 0x00, 0x00, 0x14, 0x00, 0x00, 0x00, 0x02, 0x00, 0x00, 0x00,
  0x60, 0x50, 0xff, 0xff, 0x01, 0x00, 0x00, 0x00, 0x4b, 0x00, 0x00, 0x00,
  0x03, 0x00, 0x00, 0x00, 0x0d, 0x00, 0x00, 0x00, 0x08, 0x00, 0x00, 0x00,
  0xff, 0xff, 0xff, 0xff, 0x2e, 0xf8, 0xff, 0xff, 0x14, 0x00, 0x00, 0x00,
  0x00, 0x00, 0x00, 0x08, 0x10, 0x00, 0x00, 0x00, 0x14, 0x00, 0x00, 0x00,
  0x02, 0x00, 0x00, 0x00, 0x94, 0x50, 0xff, 0xff, 0x01, 0x00, 0x00, 0x00,
  0x4a, 0x00, 0x00, 0x00, 0x03, 0x00, 0x00, 0x00, 0x49, 0x00, 0x00, 0x00,
  0x05, 0x00, 0x00, 0x00, 0xff, 0xff, 0xff, 0xff, 0x62, 0xf8, 0xff, 0xff,
  0x14, 0x00, 0x00, 0x00, 0x00, 0x00, 0x00, 0x15, 0x10, 0x00, 0x00, 0x00,
  0x14, 0x00, 0x00, 0x00, 0x06, 0x00, 0x00, 0x00, 0xc8, 0x50, 0xff, 0xff,
  0x01, 0x00, 0x00, 0x00, 0x49, 0x00, 0x00, 0x00, 0x02, 0x00, 0x00, 0x00,
  0x44, 0x00, 0x00, 0x00, 0x48, 0x00, 0x00, 0x00, 0x32, 0xf9, 0xff, 0xff,
  0x0c, 0x00, 0x00, 0x00, 0x10, 0x00, 0x00, 0x00, 0x05, 0x00, 0x00, 0x00,
  0x01, 0x00, 0x00, 0x00, 0x48, 0x00, 0x00, 0x00, 0x01, 0x00, 0x00, 0x00,
  0x47, 0x00, 0x00, 0x00, 0xb2, 0xf8, 0xff, 0xff, 0x14, 0x00, 0x00, 0x00,
  0x00, 0x00, 0x00, 0x0b, 0x10, 0x00, 0x00, 0x00, 0x14, 0x00, 0x00, 0x00,
  0x07, 0x00, 0x00, 0x00, 0x18, 0x51, 0xff, 0xff, 0x01, 0x00, 0x00, 0x00,
  0x47, 0x00, 0x00, 0x00, 0x02, 0x00, 0x00, 0x00, 0x43, 0x00, 0x00, 0x00,
  0x46, 0x00, 0x00, 0x00, 0xe2, 0xf8, 0xff, 0xff, 0x14, 0x00, 0x00, 0x00,
  0x00, 0x00, 0x00, 0x15, 0x10, 0x00, 0x00, 0x00, 0x14, 0x00, 0x00, 0x00,
  0x06, 0x00, 0x00, 0x00, 0x48, 0x51, 0xff, 0xff, 0x01, 0x00, 0x00, 0x00,
  0x46, 0x00, 0x00, 0x00, 0x02, 0x00, 0x00, 0x00, 0x41, 0x00, 0x00, 0x00,
  0x45, 0x00, 0x00, 0x00, 0xb2, 0xf9, 0xff, 0xff, 0x0c, 0x00, 0x00, 0x00,
  0x10, 0x00, 0x00, 0x00, 0x05, 0x00, 0x00, 0x00, 0x01, 0x00, 0x00, 0x00,
  0x45, 0x00, 0x00, 0x00, 0x01, 0x00, 0x00, 0x00, 0x3f, 0x00, 0x00, 0x00,
  0xd2, 0xf9, 0xff, 0xff, 0x0c, 0x00, 0x00, 0x00, 0x10, 0x00, 0x00, 0x00,
  0x04, 0x00, 0x00, 0x00, 0x01, 0x00, 0x00, 0x00, 0x44, 0x00, 0x00, 0x00,
  0x01, 0x00, 0x00, 0x00, 0x40, 0x00, 0x00, 0x00, 0x52, 0xf9, 0xff, 0xff,
  0x14, 0x00, 0x00, 0x00, 0x00, 0x00, 0x00, 0x15, 0x10, 0x00, 0x00, 0x00,
  0x14, 0x00, 0x00, 0x00, 0x06, 0x00, 0x00, 0x00, 0xb8, 0x51, 0xff, 0xff,
  0x01, 0x00, 0x00, 0x00, 0x43, 0x00, 0x00, 0x00, 0x02, 0x00, 0x00, 0x00,
  0x42, 0x00, 0x00, 0x00, 0x36, 0x00, 0x00, 0x00, 0x22, 0xfa, 0xff, 0xff,
  0x0c, 0x00, 0x00, 0x00, 0x10, 0x00, 0x00, 0x00, 0x04, 0x00, 0x00, 0x00,
  0x01, 0x00, 0x00, 0x00, 0x42, 0x00, 0x00, 0x00, 0x01, 0x00, 0x00, 0x00,
  0x3e, 0x00, 0x00, 0x00, 0x42, 0xfa, 0xff, 0xff, 0x0c, 0x00, 0x00, 0x00,
  0x10, 0x00, 0x00, 0x00, 0x04, 0x00, 0x00, 0x00, 0x01, 0x00, 0x00, 0x00,
  0x41, 0x00, 0x00, 0x00, 0x01, 0x00, 0x00, 0x00, 0x3d, 0x00, 0x00, 0x00,
  0xc2, 0xf9, 0xff, 0xff, 0x14, 0x00, 0x00, 0x00, 0x00, 0x00, 0x00, 0x23,
  0x14, 0x00, 0x00, 0x00, 0x24, 0x00, 0x00, 0x00, 0x03, 0x00, 0x00, 0x00,
  0xb2, 0xf9, 0xff, 0xff, 0x04, 0x00, 0x00, 0x00, 0x04, 0x00, 0x00, 0x00,
  0x3d, 0x00, 0x00, 0x00, 0x3e, 0x00, 0x00, 0x00, 0x3f, 0x00, 0x00, 0x00,
  0x40, 0x00, 0x00, 0x00, 0x02, 0x00, 0x00, 0x00, 0x02, 0x00, 0x00, 0x00,
  0x3c, 0x00, 0x00, 0x00, 0x02, 0xfa, 0xff, 0xff, 0x14, 0x00, 0x00, 0x00,
  0x00, 0x00, 0x00, 0x0b, 0x10, 0x00, 0x00, 0x00, 0x14, 0x00, 0x00, 0x00,
  0x07, 0x00, 0x00, 0x00, 0x68, 0x52, 0xff, 0xff, 0x01, 0x00, 0x00, 0x00,
  0x3c, 0x00, 0x00, 0x00, 0x02, 0x00, 0x00, 0x00, 0x3b, 0x00, 0x00, 0x00,
  0x07, 0x00, 0x00, 0x00, 0x32, 0xfa, 0xff, 0xff, 0x14, 0x00, 0x00, 0x00,
  0x00, 0x00, 0x00, 0x0b, 0x10, 0x00, 0x00, 0x00, 0x14, 0x00, 0x00, 0x00,
  0x07, 0x00, 0x00, 0x00, 0x98, 0x52, 0xff, 0xff, 0x01, 0x00, 0x00, 0x00,
  0x3b, 0x00, 0x00, 0x00, 0x02, 0x00, 0x00, 0x00, 0x3a, 0x00, 0x00, 0x00,
  0x39, 0x00, 0x00, 0x00, 0x62, 0xfa, 0xff, 0xff, 0x14, 0x00, 0x00, 0x00,
  0x00, 0x00, 0x00, 0x08, 0x10, 0x00, 0x00, 0x00, 0x14, 0x00, 0x00, 0x00,
  0x02, 0x00, 0x00, 0x00, 0xc8, 0x52, 0xff, 0xff, 0x01, 0x00, 0x00, 0x00,
  0x3a, 0x00, 0x00, 0x00, 0x03, 0x00, 0x00, 0x00, 0x0c, 0x00, 0x00, 0x00,
  0x08, 0x00, 0x00, 0x00, 0xff, 0xff, 0xff, 0xff, 0x96, 0xfa, 0xff, 0xff,
  0x14, 0x00, 0x00, 0x00, 0x00, 0x00, 0x00, 0x08, 0x10, 0x00, 0x00, 0x00,
  0x14, 0x00, 0x00, 0x00, 0x02, 0x00, 0x00, 0x00, 0xfc, 0x52, 0xff, 0xff,
  0x01, 0x00, 0x00, 0x00, 0x39, 0x00, 0x00, 0x00, 0x03, 0x00, 0x00, 0x00,
  0x38, 0x00, 0x00, 0x00, 0x05, 0x00, 0x00, 0x00, 0xff, 0xff, 0xff, 0xff,
  0xca, 0xfa, 0xff, 0xff, 0x14, 0x00, 0x00, 0x00, 0x00, 0x00, 0x00, 0x15,
  0x10, 0x00, 0x00, 0x00, 0x14, 0x00, 0x00, 0x00, 0x06, 0x00, 0x00, 0x00,
  0x30, 0x53, 0xff, 0xff, 0x01, 0x00, 0x00, 0x00, 0x38, 0x00, 0x00, 0x00,
  0x02, 0x00, 0x00, 0x00, 0x33, 0x00, 0x00, 0x00, 0x37, 0x00, 0x00, 0x00,
  0x9a, 0xfb, 0xff, 0xff, 0x0c, 0x00, 0x00, 0x00, 0x10, 0x00, 0x00, 0x00,
  0x05, 0x00, 0x00, 0x00, 0x01, 0x00, 0x00, 0x00, 0x37, 0x00, 0x00, 0x00,
  0x01, 0x00, 0x00, 0x00, 0x36, 0x00, 0x00, 0x00, 0x1a, 0xfb, 0xff, 0xff,
  0x14, 0x00, 0x00, 0x00, 0x00, 0x00, 0x00, 0x0b, 0x10, 0x00, 0x00, 0x00,
  0x14, 0x00, 0x00, 0x00, 0x07, 0x00, 0x00, 0x00, 0x80, 0x53, 0xff, 0xff,
  0x01, 0x00, 0x00, 0x00, 0x36, 0x00, 0x00, 0x00, 0x02, 0x00, 0x00, 0x00,
  0x32, 0x00, 0x00, 0x00, 0x35, 0x00, 0x00, 0x00, 0x4a, 0xfb, 0xff, 0xff,
  0x14, 0x00, 0x00, 0x00, 0x00, 0x00, 0x00, 0x15, 0x10, 0x00, 0x00, 0x00,
  0x14, 0x00, 0x00, 0x00, 0x06, 0x00, 0x00, 0x00, 0xb0, 0x53, 0xff, 0xff,
  0x01, 0x00, 0x00, 0x00, 0x35, 0x00, 0x00, 0x00, 0x02, 0x00, 0x00, 0x00,
  0x30, 0x00, 0x00, 0x00, 0x34, 0x00, 0x00, 0x00, 0x1a, 0xfc, 0xff, 0xff,
  0x0c, 0x00, 0x00, 0x00, 0x10, 0x00, 0x00, 0x00, 0x05, 0x00, 0x00, 0x00,
  0x01, 0x00, 0x00, 0x00, 0x34, 0x00, 0x00, 0x00, 0x01, 0x00, 0x00, 0x00,
  0x2e, 0x00, 0x00, 0x00, 0x3a, 0xfc, 0xff, 0xff, 0x0c, 0x00, 0x00, 0x00,
  0x10, 0x00, 0x00, 0x00, 0x04, 0x00, 0x00, 0x00, 0x01, 0x00, 0x00, 0x00,
  0x33, 0x00, 0x00, 0x00, 0x01, 0x00, 0x00, 0x00, 0x2f, 0x00, 0x00, 0x00,
  0xba, 0xfb, 0xff, 0xff, 0x14, 0x00, 0x00, 0x00, 0x00, 0x00, 0x00, 0x15,
  0x10, 0x00, 0x00, 0x00, 0x14, 0x00, 0x00, 0x00, 0x06, 0x00, 0x00, 0x00,
  0x20, 0x54, 0xff, 0xff, 0x01, 0x00, 0x00, 0x00, 0x32, 0x00, 0x00, 0x00,
  0x02, 0x00, 0x00, 0x00, 0x31, 0x00, 0x00, 0x00, 0x1e, 0x00, 0x00, 0x00,
  0x8a, 0xfc, 0xff, 0xff, 0x0c, 0x00, 0x00, 0x00, 0x10, 0x00, 0x00, 0x00,
  0x04, 0x00, 0x00, 0x00, 0x01, 0x00, 0x00, 0x00, 0x31, 0x00, 0x00, 0x00,
  0x01, 0x00, 0x00, 0x00, 0x2d, 0x00, 0x00, 0x00, 0xaa, 0xfc, 0xff, 0xff,
  0x0c, 0x00, 0x00, 0x00, 0x10, 0x00, 0x00, 0x00, 0x04, 0x00, 0x00, 0x00,
  0x01, 0x00, 0x00, 0x00, 0x30, 0x00, 0x00, 0x00, 0x01, 0x00, 0x00, 0x00,
  0x2c, 0x00, 0x00, 0x00, 0x2a, 0xfc, 0xff, 0xff, 0x14, 0x00, 0x00, 0x00,
  0x00, 0x00, 0x00, 0x23, 0x14, 0x00, 0x00, 0x00, 0x24, 0x00, 0x00, 0x00,
  0x03, 0x00, 0x00, 0x00, 0x1a, 0xfc, 0xff, 0xff, 0x04, 0x00, 0x00, 0x00,
  0x04, 0x00, 0x00, 0x00, 0x2c, 0x00, 0x00, 0x00, 0x2d, 0x00, 0x00, 0x00,
  0x2e, 0x00, 0x00, 0x00, 0x2f, 0x00, 0x00, 0x00, 0x02, 0x00, 0x00, 0x00,
  0x02, 0x00, 0x00, 0x00, 0x2b, 0x00, 0x00, 0x00, 0x6a, 0xfc, 0xff, 0xff,
  0x14, 0x00, 0x00, 0x00, 0x00, 0x00, 0x00, 0x0b, 0x10, 0x00, 0x00, 0x00,
  0x14, 0x00, 0x00, 0x00, 0x07, 0x00, 0x00, 0x00, 0xd0, 0x54, 0xff, 0xff,
  0x01, 0x00, 0x00, 0x00, 0x2b, 0x00, 0x00, 0x00, 0x02, 0x00, 0x00, 0x00,
  0x2a, 0x00, 0x00, 0x00, 0x07, 0x00, 0x00, 0x00, 0x9a, 0xfc, 0xff, 0xff,
  0x14, 0x00, 0x00, 0x00, 0x00, 0x00, 0x00, 0x0b, 0x10, 0x00, 0x00, 0x00,
  0x14, 0x00, 0x00, 0x00, 0x07, 0x00, 0x00, 0x00, 0x00, 0x55, 0xff, 0xff,
  0x01, 0x00, 0x00, 0x00, 0x2a, 0x00, 0x00, 0x00, 0x02, 0x00, 0x00, 0x00,
  0x29, 0x00, 0x00, 0x00, 0x21, 0x00, 0x00, 0x00, 0xca, 0xfc, 0xff, 0xff,
  0x14, 0x00, 0x00, 0x00, 0x00, 0x00, 0x00, 0x08, 0x10, 0x00, 0x00, 0x00,
  0x14, 0x00, 0x00, 0x00, 0x02, 0x00, 0x00, 0x00, 0x30, 0x55, 0xff, 0xff,
  0x01, 0x00, 0x00, 0x00, 0x29, 0x00, 0x00, 0x00, 0x03, 0x00, 0x00, 0x00,
  0x0b, 0x00, 0x00, 0x00, 0x08, 0x00, 0x00, 0x00, 0xff, 0xff, 0xff, 0xff,
  0xfe, 0xfc, 0xff, 0xff, 0x14, 0x00, 0x00, 0x00, 0x00, 0x00, 0x00, 0x08,
  0x10, 0x00, 0x00, 0x00, 0x14, 0x00, 0x00, 0x00, 0x02, 0x00, 0x00, 0x00,
  0x64, 0x55, 0xff, 0xff, 0x01, 0x00, 0x00, 0x00, 0x28, 0x00, 0x00, 0x00,
  0x03, 0x00, 0x00, 0x00, 0x15, 0x00, 0x00, 0x00, 0x08, 0x00, 0x00, 0x00,
  0xff, 0xff, 0xff, 0xff, 0x32, 0xfd, 0xff, 0xff, 0x14, 0x00, 0x00, 0x00,
  0x00, 0x00, 0x00, 0x08, 0x10, 0x00, 0x00, 0x00, 0x14, 0x00, 0x00, 0x00,
  0x02, 0x00, 0x00, 0x00, 0x98, 0x55, 0xff, 0xff, 0x01, 0x00, 0x00, 0x00,
  0x27, 0x00, 0x00, 0x00, 0x03, 0x00, 0x00, 0x00, 0x14, 0x00, 0x00, 0x00,
  0x08, 0x00, 0x00, 0x00, 0xff, 0xff, 0xff, 0xff, 0x66, 0xfd, 0xff, 0xff,
  0x14, 0x00, 0x00, 0x00, 0x00, 0x00, 0x00, 0x08, 0x10, 0x00, 0x00, 0x00,
  0x14, 0x00, 0x00, 0x00, 0x02, 0x00, 0x00, 0x00, 0xcc, 0x55, 0xff, 0xff,
  0x01, 0x00, 0x00, 0x00, 0x26, 0x00, 0x00, 0x00, 0x03, 0x00, 0x00, 0x00,
  0x13, 0x00, 0x00, 0x00, 0x08, 0x00, 0x00, 0x00, 0xff, 0xff, 0xff, 0xff,
  0x9a, 0xfd, 0xff, 0xff, 0x14, 0x00, 0x00, 0x00, 0x00, 0x00, 0x00, 0x08,
  0x10, 0x00, 0x00, 0x00, 0x14, 0x00, 0x00, 0x00, 0x02, 0x00, 0x00, 0x00,
  0x00, 0x56, 0xff, 0xff, 0x01, 0x00, 0x00, 0x00, 0x25, 0x00, 0x00, 0x00,
  0x03, 0x00, 0x00, 0x00, 0x12, 0x00, 0x00, 0x00, 0x08, 0x00, 0x00, 0x00,
  0xff, 0xff, 0xff, 0xff, 0xce, 0xfd, 0xff, 0xff, 0x14, 0x00, 0x00, 0x00,
  0x00, 0x00, 0x00, 0x08, 0x10, 0x00, 0x00, 0x00, 0x14, 0x00, 0x00, 0x00,
  0x02, 0x00, 0x00, 0x00, 0x34, 0x56, 0xff, 0xff, 0x01, 0x00, 0x00, 0x00,
  0x24, 0x00, 0x00, 0x00, 0x03, 0x00, 0x00, 0x00, 0x11, 0x00, 0x00, 0x00,
  0x08, 0x00, 0x00, 0x00, 0xff, 0xff, 0xff, 0xff, 0x02, 0xfe, 0xff, 0xff,
  0x14, 0x00, 0x00, 0x00, 0x00, 0x00, 0x00, 0x08, 0x10, 0x00, 0x00, 0x00,
  0x14, 0x00, 0x00, 0x00, 0x02, 0x00, 0x00, 0x00, 0x68, 0x56, 0xff, 0xff,
  0x01, 0x00, 0x00, 0x00, 0x23, 0x00, 0x00, 0x00, 0x03, 0x00, 0x00, 0x00,
  0x10, 0x00, 0x00, 0x00, 0x08, 0x00, 0x00, 0x00, 0xff, 0xff, 0xff, 0xff,
  0x36, 0xfe, 0xff, 0xff, 0x14, 0x00, 0x00, 0x00, 0x00, 0x00, 0x00, 0x08,
  0x10, 0x00, 0x00, 0x00, 0x14, 0x00, 0x00, 0x00, 0x02, 0x00, 0x00, 0x00,
  0x9c, 0x56, 0xff, 0xff, 0x01, 0x00, 0x00, 0x00, 0x22, 0x00, 0x00, 0x00,
  0x03, 0x00, 0x00, 0x00, 0x0f, 0x00, 0x00, 0x00, 0x08, 0x00, 0x00, 0x00,
  0xff, 0xff, 0xff, 0xff, 0x6a, 0xfe, 0xff, 0xff, 0x14, 0x00, 0x00, 0x00,
  0x00, 0x00, 0x00, 0x08, 0x10, 0x00, 0x00, 0x00, 0x14, 0x00, 0x00, 0x00,
  0x02, 0x00, 0x00, 0x00, 0xd0, 0x56, 0xff, 0xff, 0x01, 0x00, 0x00, 0x00,
  0x21, 0x00, 0x00, 0x00, 0x03, 0x00, 0x00, 0x00, 0x20, 0x00, 0x00, 0x00,
  0x05, 0x00, 0x00, 0x00, 0xff, 0xff, 0xff, 0xff, 0x9e, 0xfe, 0xff, 0xff,
  0x14, 0x00, 0x00, 0x00, 0x00, 0x00, 0x00, 0x15, 0x10, 0x00, 0x00, 0x00,
  0x14, 0x00, 0x00, 0x00, 0x06, 0x00, 0x00, 0x00, 0x04, 0x57, 0xff, 0xff,
  0x01, 0x00, 0x00, 0x00, 0x20, 0x00, 0x00, 0x00, 0x02, 0x00, 0x00, 0x00,
  0x1c, 0x00, 0x00, 0x00, 0x1f, 0x00, 0x00, 0x00, 0x6e, 0xff, 0xff, 0xff,
  0x0c, 0x00, 0x00, 0x00, 0x10, 0x00, 0x00, 0x00, 0x05, 0x00, 0x00, 0x00,
  0x01, 0x00, 0x00, 0x00, 0x1f, 0x00, 0x00, 0x00, 0x01, 0x00, 0x00, 0x00,
  0x1e, 0x00, 0x00, 0x00, 0xee, 0xfe, 0xff, 0xff, 0x14, 0x00, 0x00, 0x00,
  0x00, 0x00, 0x00, 0x15, 0x10, 0x00, 0x00, 0x00, 0x14, 0x00, 0x00, 0x00,
  0x06, 0x00, 0x00, 0x00, 0x54, 0x57, 0xff, 0xff, 0x01, 0x00, 0x00, 0x00,
  0x1e, 0x00, 0x00, 0x00, 0x02, 0x00, 0x00, 0x00, 0x1b, 0x00, 0x00, 0x00,
  0x1d, 0x00, 0x00, 0x00, 0xbe, 0xff, 0xff, 0xff, 0x0c, 0x00, 0x00, 0x00,
  0x10, 0x00, 0x00, 0x00, 0x05, 0x00, 0x00, 0x00, 0x01, 0x00, 0x00, 0x00,
  0x1d, 0x00, 0x00, 0x00, 0x01, 0x00, 0x00, 0x00, 0x19, 0x00, 0x00, 0x00,
  0xde, 0xff, 0xff, 0xff, 0x0c, 0x00, 0x00, 0x00, 0x10, 0x00, 0x00, 0x00,
  0x04, 0x00, 0x00, 0x00, 0x01, 0x00, 0x00, 0x00, 0x1c, 0x00, 0x00, 0x00,
  0x01, 0x00, 0x00, 0x00, 0x1a, 0x00, 0x00, 0x00, 0x00, 0x00, 0x0a, 0x00,
  0x10, 0x00, 0x0c, 0x00, 0x08, 0x00, 0x04, 0x00, 0x0a, 0x00, 0x00, 0x00,
  0x0c, 0x00, 0x00, 0x00, 0x10, 0x00, 0x00, 0x00, 0x04, 0x00, 0x00, 0x00,
  0x01, 0x00, 0x00, 0x00, 0x1b, 0x00, 0x00, 0x00, 0x01, 0x00, 0x00, 0x00,
  0x17, 0x00, 0x00, 0x00, 0x8a, 0xff, 0xff, 0xff, 0x14, 0x00, 0x00, 0x00,
  0x00, 0x00, 0x00, 0x23, 0x14, 0x00, 0x00, 0x00, 0x24, 0x00, 0x00, 0x00,
  0x03, 0x00, 0x00, 0x00, 0x7a, 0xff, 0xff, 0xff, 0x04, 0x00, 0x00, 0x00,
  0x04, 0x00, 0x00, 0x00, 0x17, 0x00, 0x00, 0x00, 0x18, 0x00, 0x00, 0x00,
  0x19, 0x00, 0x00, 0x00, 0x1a, 0x00, 0x00, 0x00, 0x02, 0x00, 0x00, 0x00,
  0x02, 0x00, 0x00, 0x00, 0x16, 0x00, 0x00, 0x00, 0xca, 0xff, 0xff, 0xff,
  0x14, 0x00, 0x00, 0x00, 0x00, 0x00, 0x00, 0x08, 0x10, 0x00, 0x00, 0x00,
  0x14, 0x00, 0x00, 0x00, 0x02, 0x00, 0x00, 0x00, 0x30, 0x58, 0xff, 0xff,
  0x01, 0x00, 0x00, 0x00, 0x16, 0x00, 0x00, 0x00, 0x03, 0x00, 0x00, 0x00,
  0x0a, 0x00, 0x00, 0x00, 0x08, 0x00, 0x00, 0x00, 0x06, 0x00, 0x00, 0x00,
  0x00, 0x00, 0x0e, 0x00, 0x1a, 0x00, 0x14, 0x00, 0x10, 0x00, 0x0c, 0x00,
  0x0b, 0x00, 0x04, 0x00, 0x0e, 0x00, 0x00, 0x00, 0x1c, 0x00, 0x00, 0x00,
  0x00, 0x00, 0x00, 0x40, 0x1c, 0x00, 0x00, 0x00, 0x4c, 0x00, 0x00, 0x00,
  0x01, 0x00, 0x00, 0x00, 0x00, 0x00, 0x06, 0x00, 0x08, 0x00, 0x04, 0x00,
  0x06, 0x00, 0x00, 0x00, 0x0c, 0x00, 0x00, 0x00, 0x0c, 0x00, 0x00, 0x00,
  0x0a, 0x00, 0x00, 0x00, 0x0b, 0x00, 0x00, 0x00, 0x0c, 0x00, 0x00, 0x00,
  0x0d, 0x00, 0x00, 0x00, 0x0e, 0x00, 0x00, 0x00, 0x0f, 0x00, 0x00, 0x00,
  0x10, 0x00, 0x00, 0x00, 0x11, 0x00, 0x00, 0x00, 0x12, 0x00, 0x00, 0x00,
  0x13, 0x00, 0x00, 0x00, 0x14, 0x00, 0x00, 0x00, 0x15, 0x00, 0x00, 0x00,
  0x01, 0x00, 0x00, 0x00, 0x09, 0x00, 0x00, 0x00, 0x00, 0x00, 0x0a, 0x00,
  0x0c, 0x00, 0x00, 0x00, 0x08, 0x00, 0x04, 0x00, 0x0a, 0x00, 0x00, 0x00,
  0x08, 0x00, 0x00, 0x00, 0x0c, 0x00, 0x00, 0x00, 0x01, 0x00, 0x00, 0x00,
  0x09, 0x00, 0x00, 0x00, 0x02, 0x00, 0x00, 0x00, 0x00, 0x00, 0x00, 0x00,
  0x01, 0x00, 0x00, 0x00, 0x01, 0x00, 0x00, 0x00, 0xdd, 0x00, 0x00, 0x00,
  0x01, 0x00, 0x00, 0x00, 0x00, 0x00, 0x00, 0x00, 0xde, 0x00, 0x00, 0x00,
  0x3c, 0xa7, 0x00, 0x00, 0xe0, 0xa6, 0x00, 0x00, 0xa4, 0xa6, 0x00, 0x00,
  0x44, 0xa6, 0x00, 0x00, 0xe0, 0xa5, 0x00, 0x00, 0x84, 0x9f, 0x00, 0x00,
  0x30, 0x99, 0x00, 0x00, 0xcc, 0x98, 0x00, 0x00, 0x70, 0x92, 0x00, 0x00,
  0xcc, 0x91, 0x00, 0x00, 0xe8, 0x8f, 0x00, 0x00, 0x04, 0x8e, 0x00, 0x00,
  0x20, 0x8c, 0x00, 0x00, 0x3c, 0x8a, 0x00, 0x00, 0x58, 0x88, 0x00, 0x00,
  0x74, 0x86, 0x00, 0x00, 0x90, 0x84, 0x00, 0x00, 0xac, 0x82, 0x00, 0x00,
  0xc8, 0x80, 0x00, 0x00, 0xe4, 0x7e, 0x00, 0x00, 0x00, 0x7d, 0x00, 0x00,
  0x1c, 0x7b, 0x00, 0x00, 0x70, 0x7a, 0x00, 0x00, 0x74, 0x79, 0x00, 0x00,
  0x78, 0x78, 0x00, 0x00, 0x7c, 0x77, 0x00, 0x00, 0x80, 0x76, 0x00, 0x00,
  0x04, 0x76, 0x00, 0x00, 0x80, 0x75, 0x00, 0x00, 0x04, 0x75, 0x00, 0x00,
  0x88, 0x74, 0x00, 0x00, 0x0c, 0x74, 0x00, 0x00, 0x90, 0x73, 0x00, 0x00,
  0x0c, 0x73, 0x00, 0x00, 0x90, 0x72, 0x00, 0x00, 0x14, 0x72, 0x00, 0x00,
  0x98, 0x71, 0x00, 0x00, 0x1c, 0x71, 0x00, 0x00, 0xa0, 0x70, 0x00, 0x00,
  0x24, 0x70, 0x00, 0x00, 0xa8, 0x6f, 0x00, 0x00, 0x2c, 0x6f, 0x00, 0x00,
  0xb0, 0x6e, 0x00, 0x00, 0x34, 0x6e, 0x00, 0x00, 0x38, 0x6d, 0x00, 0x00,
  0x3c, 0x6c, 0x00, 0x00, 0x40, 0x6b, 0x00, 0x00, 0x44, 0x6a, 0x00, 0x00,
  0xc8, 0x69, 0x00, 0x00, 0x44, 0x69, 0x00, 0x00, 0xc8, 0x68, 0x00, 0x00,
  0x44, 0x68, 0x00, 0x00, 0xc8, 0x67, 0x00, 0x00, 0x4c, 0x67, 0x00, 0x00,
  0xd0, 0x66, 0x00, 0x00, 0x54, 0x66, 0x00, 0x00, 0xd8, 0x65, 0x00, 0x00,
  0x54, 0x65, 0x00, 0x00, 0xd8, 0x64, 0x00, 0x00, 0x5c, 0x64, 0x00, 0x00,
  0xe0, 0x63, 0x00, 0x00, 0xe4, 0x62, 0x00, 0x00, 0xe8, 0x61, 0x00, 0x00,
  0xec, 0x60, 0x00, 0x00, 0xf0, 0x5f, 0x00, 0x00, 0x74, 0x5f, 0x00, 0x00,
  0xf0, 0x5e, 0x00, 0x00, 0x74, 0x5e, 0x00, 0x00, 0xf0, 0x5d, 0x00, 0x00,
  0x74, 0x5d, 0x00, 0x00, 0xf8, 0x5c, 0x00, 0x00, 0x7c, 0x5c, 0x00, 0x00,
  0x00, 0x5c, 0x00, 0x00, 0x84, 0x5b, 0x00, 0x00, 0x00, 0x5b, 0x00, 0x00,
  0x84, 0x5a, 0x00, 0x00, 0x08, 0x5a, 0x00, 0x00, 0x8c, 0x59, 0x00, 0x00,
  0x90, 0x58, 0x00, 0x00, 0x94, 0x57, 0x00, 0x00, 0x98, 0x56, 0x00, 0x00,
  0x9c, 0x55, 0x00, 0x00, 0x20, 0x55, 0x00, 0x00, 0x9c, 0x54, 0x00, 0x00,
  0x20, 0x54, 0x00, 0x00, 0x9c, 0x53, 0x00, 0x00, 0x20, 0x53, 0x00, 0x00,
  0xa4, 0x52, 0x00, 0x00, 0x28, 0x52, 0x00, 0x00, 0xac, 0x51, 0x00, 0x00,
  0x30, 0x51, 0x00, 0x00, 0xac, 0x50, 0x00, 0x00, 0x30, 0x50, 0x00, 0x00,
  0xb4, 0x4f, 0x00, 0x00, 0x38, 0x4f, 0x00, 0x00, 0x3c, 0x4e, 0x00, 0x00,
  0x40, 0x4d, 0x00, 0x00, 0x44, 0x4c, 0x00, 0x00, 0x48, 0x4b, 0x00, 0x00,
  0xcc, 0x4a, 0x00, 0x00, 0x48, 0x4a, 0x00, 0x00, 0xcc, 0x49, 0x00, 0x00,
  0x48, 0x49, 0x00, 0x00, 0xcc, 0x48, 0x00, 0x00, 0x50, 0x48, 0x00, 0x00,
  0xd4, 0x47, 0x00, 0x00, 0x58, 0x47, 0x00, 0x00, 0xdc, 0x46, 0x00, 0x00,
  0x58, 0x46, 0x00, 0x00, 0xdc, 0x45, 0x00, 0x00, 0x60, 0x45, 0x00, 0x00,
  0x5c, 0x44, 0x00, 0x00, 0x58, 0x43, 0x00, 0x00, 0x54, 0x42, 0x00, 0x00,
  0x50, 0x41, 0x00, 0x00, 0xcc, 0x40, 0x00, 0x00, 0x48, 0x40, 0x00, 0x00,
  0xcc, 0x3f, 0x00, 0x00, 0x48, 0x3f, 0x00, 0x00, 0xcc, 0x3e, 0x00, 0x00,
  0x50, 0x3e, 0x00, 0x00, 0xd4, 0x3d, 0x00, 0x00, 0x58, 0x3d, 0x00, 0x00,
  0xdc, 0x3c, 0x00, 0x00, 0x58, 0x3c, 0x00, 0x00, 0xdc, 0x3b, 0x00, 0x00,
  0x60, 0x3b, 0x00, 0x00, 0x5c, 0x3a, 0x00, 0x00, 0x58, 0x39, 0x00, 0x00,
  0x54, 0x38, 0x00, 0x00, 0x50, 0x37, 0x00, 0x00, 0xcc, 0x36, 0x00, 0x00,
  0x48, 0x36, 0x00, 0x00, 0xcc, 0x35, 0x00, 0x00, 0x48, 0x35, 0x00, 0x00,
  0xcc, 0x34, 0x00, 0x00, 0x50, 0x34, 0x00, 0x00, 0xd4, 0x33, 0x00, 0x00,
  0x58, 0x33, 0x00, 0x00, 0xdc, 0x32, 0x00, 0x00, 0x58, 0x32, 0x00, 0x00,
  0xdc, 0x31, 0x00, 0x00, 0x60, 0x31, 0x00, 0x00, 0x5c, 0x30, 0x00, 0x00,
  0x58, 0x2f, 0x00, 0x00, 0x54, 0x2e, 0x00, 0x00, 0x50, 0x2d, 0x00, 0x00,
  0xcc, 0x2c, 0x00, 0x00, 0x48, 0x2c, 0x00, 0x00, 0xcc, 0x2b, 0x00, 0x00,
  0x48, 0x2b, 0x00, 0x00, 0xcc, 0x2a, 0x00, 0x00, 0x50, 0x2a, 0x00, 0x00,
  0xd4, 0x29, 0x00, 0x00, 0x58, 0x29, 0x00, 0x00, 0xdc, 0x28, 0x00, 0x00,
  0x58, 0x28, 0x00, 0x00, 0xdc, 0x27, 0x00, 0x00, 0x60, 0x27, 0x00, 0x00,
  0x5c, 0x26, 0x00, 0x00, 0x58, 0x25, 0x00, 0x00, 0x54, 0x24, 0x00, 0x00,
  0x50, 0x23, 0x00, 0x00, 0xcc, 0x22, 0x00, 0x00, 0x48, 0x22, 0x00, 0x00,
  0xcc, 0x21, 0x00, 0x00, 0x48, 0x21, 0x00, 0x00, 0xcc, 0x20, 0x00, 0x00,
  0x50, 0x20, 0x00, 0x00, 0xd4, 0x1f, 0x00, 0x00, 0x58, 0x1f, 0x00, 0x00,
  0xdc, 0x1e, 0x00, 0x00, 0x58, 0x1e, 0x00, 0x00, 0xdc, 0x1d, 0x00, 0x00,
  0x60, 0x1d, 0x00, 0x00, 0x5c, 0x1c, 0x00, 0x00, 0x58, 0x1b, 0x00, 0x00,
  0x54, 0x1a, 0x00, 0x00, 0x50, 0x19, 0x00, 0x00, 0xcc, 0x18, 0x00, 0x00,
  0x48, 0x18, 0x00, 0x00, 0xcc, 0x17, 0x00, 0x00, 0x48, 0x17, 0x00, 0x00,
  0xcc, 0x16, 0x00, 0x00, 0x50, 0x16, 0x00, 0x00, 0xd4, 0x15, 0x00, 0x00,
  0x58, 0x15, 0x00, 0x00, 0xdc, 0x14, 0x00, 0x00, 0x58, 0x14, 0x00, 0x00,
  0xdc, 0x13, 0x00, 0x00, 0x60, 0x13, 0x00, 0x00, 0x5c, 0x12, 0x00, 0x00,
  0x58, 0x11, 0x00, 0x00, 0x54, 0x10, 0x00, 0x00, 0x50, 0x0f, 0x00, 0x00,
  0xcc, 0x0e, 0x00, 0x00, 0x48, 0x0e, 0x00, 0x00, 0xcc, 0x0d, 0x00, 0x00,
  0x48, 0x0d, 0x00, 0x00, 0xcc, 0x0c, 0x00, 0x00, 0x50, 0x0c, 0x00, 0x00,
